11110011
11110100
00000101
11100000
11110011
00001011
00000110
00001010
11111100
00000001
00000111
11111100
11101000
00001110
00001110
00011011
11110110
11101000
00010010
11101011
00000100
11111101
11010011
00000010
11110001
11010110
11111111
10110101
11010001
11010111
11101101
11110111
11110111
00000001
00000111
00001011
00001110
00000000
00000100
00001100
00010001
11011010
11101010
00001011
11011110
11111101
11100000
00000001
11110001
00000100
11100110
10111110
00000010
11111000
00000000
11100100
00010011
00001010
11100110
00000111
11100110
00011000
00001011
11111010
11111111
11110111
11111011
00001001
11101011
11010001
00000011
11110000
00001000
00001010
11110100
00011000
11101100
11111010
00010100
00000100
11110111
00011000
11100011
11101100
00000101
11110011
00000001
00010111
00001000
11101100
00000101
00001011
00001000
11110100
00000111
11110101
11110110
00010001
11100000
00001100
11101001
00010100
11110101
00000000
11111101
00000010
11111111
11111010
11110000
00000101
11111001
00000100
11110111
11111101
11111000
11101011
11101101
00001110
00010001
00001011
00001101
00001010
00001100
00001100
00010001
11111101
00000100
11010101
00000100
11000111
00000111
11001110
11110100
00000010
11100010
00001001
00000011
11100101
11100011
11110111
00001101
11110101
00001101
11101011
00001111
00000110
00001110
00000100
00001000
11100011
11011100
11100111
11001011
11000011
11101010
00000111
11100100
00001001
11011110
00000001
00000111
11100010
00000101
11011011
11111111
00000010
00001000
11101110
00010101
11111101
00000110
11100100
11100111
00000010
11100010
00001011
11101001
11101000
11101011
00000011
11111100
11111010
00001000
00001110
11110001
11101010
00000100
11100101
00001010
11011010
00000111
11111000
00000111
00000111
11110111
00000010
00000111
11010100
11110001
11110010
11111001
00000010
11111011
11110011
00000011
11110011
11111101
00001100
00010100
00000101
11110111
00000000
00000100
00000110
11110111
00000110
11101110
00000101
00010010
11111010
11110101
11110100
11101000
00000011
00001111
00000110
11100100
00001010
11111000
11110101
11011101
11001111
00000100
11111011
00000000
00010010
00000000
11110101
00000111
11111101
00001100
11011011
11110110
00000000
11111100
11101000
00001100
00010011
11111110
11101000
00001100
00001100
00000111
11110000
11111101
11010000
11111001
11011000
11111101
11111001
00001010
00001011
00000101
11110110
00000111
00000010
00000101
11100110
11110101
11100111
00001010
11101000
00001111
00010000
00001010
11100110
00001000
00010011
11011101
00001101
11101011
11111101
11111111
00010011
00000011
11110010
11100111
11111010
11110000
11101011
00001011
11110111
00001001
00000100
11110011
00001101
00001001
00000010
11100110
11101101
11101101
11100101
00000110
11101010
11110110
11111000
00000000
11100110
11101111
11110010
00000110
11010011
00001000
11101100
00000111
11000001
00001000
10000001
11100100
10101101
00000011
11100111
11110000
00001100
11111100
11010001
00001100
11010101
11100111
11101011
11101110
00011100
00010100
11111000
11110010
00001101
11101110
11101110
11100011
11111110
00010000
00010101
11101000
00000111
11110011
00000101
00001110
11000111
00010010
11111011
11110011
11100100
00001001
00000001
00000100
11011001
00001011
00000101
11101001
11111001
11101011
00000010
11110110
00100010
11110111
11111101
11111011
11110101
11111100
00000010
11111101
00001110
00000100
11111100
11101010
00000000
11110011
00001101
11111110
00010000
11111011
11100100
11111010
00001000
11110010
00000000
11111110
00000101
00011010
11111010
11101101
11111101
11111110
00001100
00001100
10011100
11111001
11010001
11100111
11000111
00010010
11110011
11010000
11110000
00010010
11011010
11101000
11010001
11110110
11011111
11111100
00010101
11101111
11111000
11100011
11111111
11110000
11110000
11110110
00000011
11111001
00010011
00000101
11110001
11110100
00001101
00001001
11100110
00011000
11110100
00000100
11111111
00001100
00001101
00001101
10110010
00000111
11011010
11110010
10111110
00001001
11110000
11111001
00000111
11100010
00000110
00001011
00001101
11011011
11101100
00001000
00001100
11111001
00000001
11101101
00010001
11010101
00001010
11110111
00000001
11110001
11101000
00001110
11010111
00001101
00001000
11111011
11111110
11101010
00001110
11110110
11100100
11101001
11100111
00010101
11110000
11100110
00001000
11011010
00000101
00000000
11011011
00001011
11110011
00001000
11111101
00001001
11101001
11100000
00010000
11101101
00001110
11101011
11101000
11111110
11101111
11111010
11111000
00100010
11110111
11111010
11011001
11111100
00000100
11101001
11110101
00000010
11101111
00001110
00001011
11110100
11110001
11011111
00000010
11101101
00001010
11111001
00001101
11111011
11111010
00000101
11100100
11101000
11110011
11101000
11110001
11101110
00000110
00000111
00010001
00000111
00001110
00001001
11110100
00010000
11111101
00001100
11110010
11111101
11100010
00001011
11100101
11111110
00001100
11101000
00000100
00000100
00000100
11100100
00000110
00000110
00010100
00001010
11110001
11111111
00001110
11111001
11101100
11110100
11100010
00000001
11101010
11110010
00000011
00000011
00001011
00000010
11110001
00000000
00001101
00000000
00001001
11101100
11100111
11111001
00000000
11101110
00001010
00001111
00001100
11101010
11101100
11110101
11001011
00000100
00100001
11110011
11010111
11111011
11101100
00000111
11110100
11110000
00001011
00001101
00010001
11111011
00001010
11111100
11110010
00001100
00001010
00001000
00001010
00001111
10110101
00001100
11010000
00001100
11110111
11110011
11111110
11111101
00000100
11110110
11110110
11111101
00000111
11111000
11111010
11111011
11111010
11111000
00000011
00000000
11011010
00000011
11100011
00010001
11011010
11110110
11110000
11110100
11111000
11111100
11111010
11100001
11111110
00001000
11100000
