01010111
11111100
00011000
00010000
00011000
01010010
01001110
00001101
11010100
11111001
00011111
01000001
11110000
00011100
00001110
01011001
01011101
11111111
01010101
01011000
11111110
01111111
00100110
00111101
01001011
00000101
11101000
00100110
01001101
00110000
00001111
00101100
01000001
01100011
00010100
01000110
00010011
00010011
01110101
00011110
00100000
11100000
00110110
00110001
01110000
00011000
00011010
11101011
00110000
11000110
11101011
01010100
00010001
11100010
01000001
11111111
11100001
11011000
00100111
01000011
11101111
11100111
01000110
11101100
