memory_initialization_radix=16;
memory_initialization_vector=
0C,
0A,
09,
01,
02,
F9,
09,
E2,
01,
23,
18,
FE,
03,
05,
13,
EC,
1F,
01,
00,
EA,
DA,
1D,
05,
E6,
FD,
11,
F6,
FD,
04,
FE,
00,
06,
F9,
01,
02,
FE,
FD,
23,
FE,
0D,
16,
12,
04,
01,
EF,
03,
FA,
FF,
04,
01,
FD,
07,
EB,
03,
FD,
2B,
0D,
17,
21,
F7,
04,
D7,
F4,
04,
FA,
02,
02,
04,
FE,
00,
FD,
FE,
FF,
FD,
24,
00,
04,
FC,
EC,
0C,
FF,
FC,
E0,
07,
05,
EE,
FD,
00,
01,
F6,
0A,
EE,
01,
FC,
EE,
F3,
DC,
FC,
F6,
19,
FD,
ED,
F8,
F4,
01,
FC,
E3,
FD,
E9,
01,
01,
F5,
01,
EA,
FA,
05,
25,
FF,
E5,
16,
03,
FC,
FC,
FD,
F6,
FC,
14,
03,
0F,
05,
06,
09,
FF,
E7,
18,
E4,
01,
1D,
0D,
07,
0D,
09,
11,
16,
25,
0A,
0F,
E7,
1A,
17,
E5,
F6,
ED,
16,
FA,
01,
00,
02,
0D,
09,
FF,
0F,
FF,
03,
FF,
0F,
EE,
F7,
13,
FF,
00,
EC,
DF,
12,
F8,
00,
04,
14,
FE,
F5,
EC,
03,
FF,
08,
05,
15,
04,
F4,
F2,
0A,
F1,
F8,
FF,
F4,
01,
FB,
E7,
FE,
01,
F6,
0E,
07,
07,
F9,
FB,
FC,
FF,
FD,
FE,
00,
10,
08,
DD,
01,
FC,
1C,
F7,
F9,
E0,
F4,
FD,
F0,
FA,
07,
1B,
00,
00,
19,
01,
E9,
DE,
F1,
FF,
FC,
EF,
FE,
0A,
F6,
F4,
FE,
FF,
13,
EB,
FB,
FB,
13,
E2,
07,
FF,
02,
F5,
01,
FA,
FE,
FF,
FD,
06,
02,
10,
FB,
FD,
10,
FB,
ED,
EF,
F4,
FF,
FF,
F7,
0C,
04,
1F,
05,
F2,
F2,
02,
32,
10,
FC,
0C,
F5,
FA,
FD,
01,
02,
04,
10,
07,
FE,
18,
00,
01,
FF,
1E,
EE,
EC,
12,
04,
F7,
EB,
E3,
00,
16,
FD,
0E,
22,
00,
DD,
F9,
10,
FB,
07,
33,
12,
F3,
05,
F2,
00,
F7,
F7,
02,
EC,
09,
F3,
EB,
FF,
FC,
EE,
0D,
1C,
05,
DE,
FA,
F2,
EA,
E3,
FD,
F2,
2A,
05,
19,
F0,
FA,
0F,
F6,
EE,
15,
E9,
0E,
0D,
13,
FF,
F6,
FF,
FA,
15,
FD,
FB,
FA,
EF,
00,
FC,
FA,
FF,
E5,
F9,
F9,
F5,
00,
0F,
01,
04,
EF,
FD,
F4,
F5,
0C,
FD,
FA,
FF,
F5,
03,
11,
0A,
06,
FB,
15,
05,
FD,
FB,
F5,
C4,
F7,
08,
0F,
04,
07,
FF,
F9,
FF,
1A,
F0,
05,
00,
03,
11,
13,
1C,
FC,
F1,
F9,
FB,
04,
FC,
F3,
07,
FC,
FC,
04,
FE,
02,
FD,
EB,
01,
14,
13,
EB,
F3,
E4,
04,
F5,
02,
F2,
FA,
03,
01,
E8,
18,
FF,
11,
FD,
F2,
09,
11,
F1,
F7,
07,
F6,
FC,
F6,
FB,
F7,
F4,
FD,
02,
F8,
09,
F2,
1B,
01,
03,
CD,
0A,
FF,
FC,
F9,
07,
05,
F8,
EC,
FC,
EE,
0C,
FC,
FC,
ED,
08,
15,
04,
E1,
10,
02,
ED,
18,
FB,
11,
FA,
0E,
04,
02,
E6,
FD,
03,
E7,
01,
F5,
08,
18,
EC,
0B,
EE,
FE,
FB,
F5,
02,
03,
03,
04,
FA,
FE,
08,
F2,
F4,
06,
2F,
06,
03,
01,
12,
DB,
15,
14,
16,
16,
04,
F3,
04,
FA,
D9,
E5,
F4,
F9,
D4,
DB,
F3,
19,
02,
FB,
01,
E7,
FC,
00,
0F,
05,
EE,
F3,
00,
00,
00,
EA,
DE,
11,
0E,
FE,
E4,
EA,
F8,
10,
F5,
03,
04,
06,
01,
1B,
F7,
F2,
F9,
20,
0D,
2D,
F0,
04,
F7,
E4,
F6,
E2,
FE,
FF,
01,
FC,
02,
01,
FF,
EA,
06,
F8,
FF,
39,
04,
EC,
F8,
0B,
00,
0D,
04,
02,
3C,
06,
00,
17,
06,
E7,
1B,
E4,
02,
04,
F2,
F7,
FC,
FE,
E6,
FB,
FD,
14,
0B,
04,
FF,
F2,
E2,
0F,
EC,
E8,
F9,
F7,
00,
E5,
1A,
EF,
12,
0A,
0B,
00,
12,
00,
05,
FE,
09,
10,
09,
0C,
03,
21,
16,
0B,
02,
E0,
15,
D6,
0F,
18,
0A,
16,
0D,
F0,
0E,
F6,
EC,
E8,
F1,
FC,
CD,
EE,
05,
0F,
0F,
EC,
FB,
F6,
FC,
FD,
01,
FF,
F7,
19,
03,
FD,
FE,
F1,
E7,
0F,
04,
10,
DA,
04,
E3,
0D,
E2,
FD,
F0,
FD,
FC,
27,
FD,
FC,
FB,
1F,
11,
2B,
FA,
F4,
F8,
FC,
FC,
FB,
FA,
08,
E6,
FB,
FF,
FD,
00,
FB,
FA,
FD,
F0,
37,
0B,
E6,
EB,
EA,
02,
12,
EB,
F9,
27,
00,
F9,
1C,
FB,
EC,
0C,
E0,
FF,
F9,
D1,
EC,
FC,
FC,
F2,
01,
FA,
12,
13,
05,
FE,
F4,
F1,
03,
01,
DC,
F7,
F9,
0D,
DD,
26,
E0,
19,
0F,
09,
FF,
12,
FD,
0A,
03,
17,
12,
E6,
E5,
F9,
24,
CE,
11,
FC,
EE,
1A,
D6,
13,
2A,
22,
1B,
27,
DE,
1B,
03,
2B,
DD,
04,
FF,
ED,
0F,
2C,
09,
13,
34,
EF,
00,
03,
FD,
F0,
00,
FB,
EF,
01,
FD,
FE,
04,
F9,
E8,
FC,
02,
CB,
EB,
CC,
1F,
20,
04,
1C,
FF,
04,
2C,
F9,
F9,
02,
04,
EB,
29,
03,
ED,
F8,
F5,
EC,
09,
F4,
FB,
ED,
F7,
FC,
FF,
07,
F0,
F6,
04,
EC,
19,
0B,
F0,
09,
F8,
02,
06,
C5,
F3,
FA,
C5,
FA,
DB,
F6,
EF,
CA,
D9,
F3,
E7,
EA,
FE,
1B,
FD,
FE,
18,
00,
F0,
FB,
08,
00,
EE,
F7,
01,
0D,
DF,
10,
F0,
F7,
03,
04,
CC,
D1,
F6,
D6,
21,
05,
02,
0B,
04,
1F,
F9,
BF,
EA,
1C,
FD,
D6,
15,
FC,
0D,
F1,
D7,
0A,
3C,
28,
12,
24,
DD,
0F,
ED,
41,
DC,
FF,
F3,
FF,
15,
19,
F3,
07,
24,
E0,
F4,
FC,
FC,
F8,
12,
EE,
E6,
FE,
04,
FC,
2B,
D5,
F5,
1C,
1F,
D2,
DF,
E0,
0A,
39,
00,
22,
FA,
01,
20,
F8,
07,
13,
0D,
FC,
0C,
F1,
CC,
11,
04,
F2,
EF,
E5,
0D,
F8,
F4,
05,
FC,
FE,
E1,
20,
0B,
14,
0F,
0C,
EE,
04,
0E,
04,
FF,
DC,
01,
1C,
E9,
FF,
D4,
FE,
F4,
FA,
F6,
E2,
E2,
F0,
1F,
07,
01,
F7,
17,
09,
E0,
E6,
09,
06,
E4,
03,
08,
E0,
F5,
F8,
FC,
F1,
04,
F8,
AB,
03,
E0,
E8,
20,
E9,
02,
0F,
02,
0F,
01,
F4,
D9,
16,
F8,
E6,
0F,
02,
0C,
F6,
BF,
28,
E7,
02,
FE,
0D,
0E,
F4,
F2,
09,
FF,
FC,
FB,
08,
12,
0D,
F1,
F1,
E7,
F9,
EB,
FD,
FC,
FB,
15,
F1,
0B,
FE,
00,
03,
17,
F2,
0A,
1F,
1E,
C3,
DF,
0A,
F4,
15,
FE,
0E,
02,
FC,
FD,
F6,
FD,
17,
07,
22,
0C,
F1,
CE,
EA,
06,
F3,
FA,
F4,
00,
06,
FC,
06,
02,
FC,
E8,
FE,
08,
00,
06,
04,
0D,
FB,
FE,
FC,
FF,
0C,
FB,
07,
07,
01,
DF,
04,
E7,
11,
E5,
DE,
FE,
16,
12,
0F,
04,
04,
E9,
FE,
EE,
F2,
F8,
05,
E4,
1C,
08,
F7,
EF,
E9,
FC,
EF,
FC,
FE,
DE,
14,
F3,
23,
F2,
F9,
01,
0D,
FE,
00,
FC,
0E,
D8,
0E,
11,
F5,
03,
FD,
11,
07,
D7,
37,
E5,
13,
17,
04,
0E,
FB,
F4,
F8,
FC,
01,
09,
12,
13,
F4,
ED,
F4,
EE,
E0,
07,
01,
FC,
00,
12,
F3,
03,
02,
00,
FC,
10,
FC,
01,
1F,
10,
D5,
A7,
07,
FB,
0A,
02,
DE,
0B,
FD,
F9,
01,
F2,
07,
FA,
39,
1E,
F5,
C5,
CB,
FF,
E8,
EB,
EA,
E9,
F4,
09,
06,
F8,
FE,
04,
E4,
1B,
06,
FD,
FA,
17,
EF,
EC,
01,
0A,
0B,
08,
DF,
1C,
01,
05,
04,
E6,
23,
E4,
E6,
F4,
18,
17,
EE,
01,
0A,
E9,
0C,
EE,
FF,
EA,
04,
F7,
1A,
13,
01,
FA,
D1,
F7,
08,
E6,
01,
E1,
09,
1E,
0F,
DC,
13,
00,
08,
FE,
FC,
E9,
11,
CF,
22,
E8,
03,
0B,
FD,
14,
E2,
E1,
22,
18,
1B,
30,
1B,
13,
0B,
E5,
22,
F6,
0E,
19,
FE,
EC,
F3,
EC,
E9,
07,
D7,
E5,
FF,
04,
F9,
00,
F6,
F7,
00,
04,
FF,
FE,
EB,
09,
08,
E3,
F0,
8F,
FB,
02,
0A,
FF,
E4,
FB,
FF,
10,
FB,
E3,
FE,
04,
01,
21,
0C,
04,
F6,
0E,
05,
E5,
E5,
E0,
FF,
13,
FC,
28,
FC,
F7,
DB,
0F,
FC,
D3,
01,
04,
FD,
0A,
03,
12,
F9,
05,
BC,
1B,
FD,
FE,
03,
E3,
02,
F1,
C8,
04,
FB,
19,
E9,
FC,
0D,
FB,
07,
08,
07,
B4,
FF,
E7,
0E,
05,
F2,
14,
EF,
F4,
03,
04,
FE,
E4,
1C,
23,
F1,
E0,
F1,
03,
08,
FE,
06,
F6,
10,
FB,
28,
E0,
21,
04,
00,
E7,
F4,
F0,
0B,
2C,
07,
14,
12,
07,
06,
02,
0D,
EF,
10,
01,
FE,
E3,
04,
0B,
E3,
FD,
FB,
E4,
02,
FE,
FD,
FD,
00,
28,
FC,
04,
FB,
EE,
F9,
03,
02,
D8,
FB,
08,
F9,
17,
F6,
03,
E2,
F5,
01,
13,
05,
D8,
0A,
18,
FE,
1C,
1D,
23,
E6,
02,
03,
E9,
0A,
EE,
EB,
11,
06,
12,
01,
F4,
F4,
F9,
EC,
E5,
06,
07,
FE,
30,
01,
EE,
0F,
F0,
07,
EF,
FC,
FF,
21,
E9,
F8,
11,
E8,
13,
05,
11,
EF,
03,
1A,
F6,
03,
18,
F5,
F8,
FD,
03,
01,
0F,
E4,
0A,
E9,
FD,
05,
06,
07,
07,
F2,
0F,
FF,
EF,
02,
04,
04,
01,
1A,
01,
FA,
04,
FD,
F3,
13,
FF,
FC,
F5,
1D,
03,
FA,
0F,
0C,
05,
FD,
F6,
01,
F8,
F5,
F5,
0A,
F6,
EB,
FE,
02,
0A,
06,
FB,
1C,
0E,
00,
04,
14,
FE,
FC,
18,
02,
03,
FD,
03,
13,
FB,
D8,
D3,
FF,
32,
07,
22,
F4,
00,
08,
05,
FE,
07,
F7,
D1,
13,
11,
02,
0E,
10,
14,
ED,
E7,
02,
06,
12,
FC,
F1,
0C,
0E,
0C,
FC,
02,
0A,
EC,
FF,
18,
F7,
05,
07,
1D,
FE,
E5,
18,
FB,
FF,
D9,
00,
F3,
0D,
09,
F9,
0F,
15,
0B,
1A,
D5,
FC,
FC,
23,
E9,
FE,
19,
E3,
23,
FC,
DE,
FB,
0B,
E9,
03,
00,
F9,
02,
F9,
0E,
17,
BF,
FC,
F2,
EA,
1E,
00,
FF,
FC,
19,
15,
FE,
12,
FD,
02,
FB,
FD,
FC,
F9,
15,
1F,
16,
E9,
F8,
10,
0B,
F6,
0E,
FA,
E6,
FB,
FD,
0B,
F3,
F2,
0F,
19,
13,
13,
23,
1B,
FB,
04,
FF,
F0,
0D,
14,
FB,
04,
00,
DE,
24,
02,
F2,
C9,
11,
14,
11,
0D,
07,
FD,
FF,
20,
FF,
E6,
14,
C5,
0C,
0E,
06,
0F,
F9,
FB,
FA,
C0,
0F,
0F,
0F,
04,
E6,
0C,
0D,
07,
F9,
1D,
F3,
DD,
06,
1C,
FB,
15,
20,
0B,
00,
F1,
08,
F5,
F5,
CA,
02,
EE,
FE,
29,
EE,
1A,
0E,
FD,
0B,
DA,
0E,
00,
18,
10,
F9,
0C,
ED,
28,
FD,
E5,
0B,
13,
09,
F9,
0E,
01,
EE,
E4,
03,
20,
BA,
03,
C4,
EE,
16,
01,
F8,
02,
12,
01,
F4,
07,
FB,
11,
06,
FC,
02,
F1,
07,
1C,
1D,
D4,
F4,
1B,
10,
F4,
06,
F2,
DE,
F1,
FA,
10,
FB,
E9,
17,
10,
0F,
09,
1D,
15,
FB,
01,
F1,
E5,
06,
01,
FC,
02,
FB,
C9,
27,
0B,
F2,
DE,
11,
1A,
13,
F8,
0E,
FF,
EE,
15,
02,
EE,
17,
E0,
F5,
01,
FB,
17,
EF,
02,
0D,
C3,
0D,
17,
08,
03,
E9,
06,
07,
04,
FB,
27,
EF,
D3,
05,
23,
F8,
1C,
28,
0E,
FC,
FD,
14,
F2,
F7,
CA,
01,
E0,
F3,
38,
F3,
19,
0B,
07,
1D,
DF,
08,
FE,
08,
0E,
00,
1B,
EA,
2E,
FF,
F7,
19,
13,
0D,
F7,
15,
03,
E7,
F4,
06,
21,
B1,
F6,
CE,
E8,
19,
00,
F6,
FE,
06,
07,
02,
01,
F9,
F3,
0F,
FD,
01,
E8,
08,
14,
FF,
00,
03,
06,
00,
F2,
10,
F8,
EF,
FA,
F4,
07,
F7,
FA,
01,
0D,
0B,
FD,
1B,
11,
FF,
FD,
05,
E8,
F9,
14,
FD,
FC,
FE,
E7,
28,
F8,
E3,
E8,
10,
27,
13,
0D,
F9,
FE,
FF,
10,
FF,
FD,
1C,
CE,
EF,
0E,
0A,
15,
01,
0D,
E9,
C9,
01,
19,
13,
FF,
FB,
09,
03,
01,
FB,
00,
10,
EB,
F8,
2B,
01,
0A,
15,
09,
FE,
ED,
0F,
FD,
FA,
DA,
FB,
EE,
EE,
32,
06,
0E,
0F,
13,
14,
D1,
01,
01,
14,
06,
FB,
08,
EA,
30,
FC,
F3,
FD,
11,
FD,
FE,
16,
00,
F7,
00,
05,
22,
B8,
FF,
E2,
EB,
1A,
02,
00,
FF,
14,
07,
F4,
0D,
0F,
E8,
15,
FC,
FF,
F5,
FD,
00,
05,
27,
1B,
14,
14,
0C,
1E,
FE,
24,
01,
01,
EF,
12,
F1,
0D,
09,
FF,
03,
FA,
F9,
00,
00,
F7,
FE,
FF,
0E,
FE,
01,
FF,
FF,
0E,
EF,
F5,
D4,
0C,
1A,
ED,
13,
01,
03,
F4,
0A,
01,
15,
0B,
C6,
0E,
01,
FF,
1B,
15,
13,
E8,
E8,
FA,
FB,
00,
FC,
08,
0A,
02,
0A,
FC,
F1,
FB,
1D,
00,
0C,
04,
01,
04,
22,
FD,
EA,
0D,
0A,
F6,
FD,
FD,
EF,
FA,
08,
02,
FE,
F7,
04,
0E,
04,
FE,
FD,
1F,
18,
FF,
11,
F4,
F8,
FC,
09,
07,
0A,
F2,
08,
1B,
02,
02,
18,
F7,
04,
D4,
05,
E8,
F9,
0E,
00,
02,
01,
12,
F6,
FD,
00,
19,
F1,
16,
03,
FC,
05,
F9,
04,
0E,
17,
16,
03,
FC,
22,
14,
08,
12,
08,
07,
F5,
0D,
F4,
08,
FC,
EA,
1B,
D7,
F8,
01,
03,
EF,
FB,
12,
00,
FC,
FC,
FE,
FA,
F6,
09,
FA,
C6,
11,
E0,
F0,
04,
02,
04,
D9,
0B,
FB,
1E,
0D,
D5,
19,
F8,
04,
0B,
14,
0F,
FB,
06,
07,
F7,
F7,
F0,
11,
0F,
00,
09,
FC,
FE,
DC,
16,
EC,
F1,
02,
08,
00,
24,
FC,
EA,
09,
0C,
E2,
15,
05,
FD,
FB,
05,
01,
DE,
F0,
04,
09,
18,
04,
01,
12,
01,
00,
28,
EF,
D6,
FF,
F9,
02,
13,
DB,
11,
26,
FB,
0B,
0F,
00,
FC,
ED,
28,
F0,
FC,
14,
03,
15,
FC,
FF,
02,
03,
02,
19,
01,
FA,
0A,
FE,
FE,
02,
E7,
10,
F0,
0B,
1F,
09,
14,
04,
FF,
12,
FA,
12,
0C,
21,
17,
09,
FC,
EB,
FB,
E0,
03,
FF,
01,
F8,
FD,
F4,
FF,
FF,
01,
FB,
F6,
D3,
09,
13,
E8,
E7,
B0,
01,
0C,
01,
03,
DF,
11,
03,
08,
15,
E0,
1A,
F8,
1C,
0F,
02,
E7,
F4,
10,
00,
F1,
F4,
ED,
11,
FE,
05,
0F,
FD,
0A,
E8,
1E,
F6,
EA,
FF,
00,
02,
11,
FF,
02,
08,
1B,
E3,
07,
02,
FD,
04,
F7,
0C,
03,
DA,
FD,
04,
16,
F7,
FD,
0B,
06,
04,
07,
FA,
D2,
FE,
CF,
0B,
12,
F2,
01,
E6,
F5,
0A,
01,
FC,
F2,
0B,
14,
F6,
D4,
FF,
03,
06,
FF,
04,
EC,
F6,
F3,
07,
1D,
D3,
05,
FE,
14,
F0,
D8,
2A,
EC,
EF,
1C,
19,
09,
F8,
F2,
0E,
F8,
14,
14,
0A,
00,
21,
EE,
E6,
06,
04,
F9,
FD,
FC,
08,
FA,
ED,
F2,
03,
03,
FE,
15,
DF,
0A,
13,
1B,
C6,
E2,
0B,
FD,
1D,
04,
F0,
10,
FD,
FF,
FA,
EC,
1D,
0E,
27,
25,
E5,
D6,
F4,
18,
E6,
FC,
E0,
F5,
1C,
09,
13,
03,
FF,
F1,
FC,
0C,
04,
FC,
01,
04,
00,
01,
01,
04,
09,
17,
01,
EC,
00,
F1,
07,
07,
0F,
F9,
C2,
EE,
F9,
31,
12,
03,
02,
0E,
FB,
F0,
00,
E1,
04,
D8,
19,
0F,
FF,
F2,
E4,
00,
04,
01,
EF,
C2,
27,
01,
E8,
E4,
F0,
FE,
07,
FE,
FC,
E6,
13,
F0,
FE,
E8,
D3,
0D,
00,
28,
DE,
DB,
26,
02,
0E,
14,
19,
F7,
09,
F5,
12,
E8,
0A,
F5,
17,
E9,
34,
04,
F8,
1F,
12,
DD,
02,
03,
F2,
FB,
CD,
F7,
01,
03,
FD,
24,
E3,
0E,
18,
1D,
B2,
C2,
E8,
ED,
26,
04,
07,
09,
04,
FC,
F8,
F1,
FB,
17,
0C,
24,
DA,
0A,
F1,
27,
F0,
07,
EC,
F8,
19,
06,
07,
F4,
06,
DC,
F3,
12,
E2,
01,
0C,
E2,
08,
F8,
00,
06,
16,
14,
03,
E0,
FE,
D6,
0C,
0D,
EF,
0E,
D7,
04,
05,
3B,
2C,
FE,
06,
19,
FC,
F6,
EE,
DD,
00,
CC,
1B,
10,
06,
F3,
FA,
FD,
F2,
1C,
ED,
AE,
03,
E3,
FD,
FC,
E9,
FC,
01,
04,
1D,
F5,
3B,
D0,
FF,
F9,
CF,
15,
03,
15,
D7,
E9,
19,
1E,
18,
13,
16,
CF,
2D,
06,
1C,
F5,
01,
D8,
ED,
0C,
2E,
14,
0B,
18,
16,
EE,
00,
FF,
FA,
F3,
E2,
EA,
02,
FC,
03,
33,
F1,
EE,
08,
12,
CB,
D6,
C4,
0B,
06,
02,
08,
00,
FC,
0A,
F1,
FB,
F2,
25,
05,
35,
FC,
F2,
FA,
0F,
E7,
0A,
F6,
ED,
00,
FD,
FB,
EE,
FF,
DE,
F0,
04,
DE,
08,
0A,
CD,
0F,
E9,
FF,
FC,
FA,
04,
F8,
CA,
FD,
EE,
FC,
06,
DC,
DB,
F3,
F1,
F9,
0D,
24,
FD,
08,
31,
01,
E5,
F6,
EE,
FD,
D1,
05,
07,
FE,
DE,
07,
F8,
F8,
0E,
19,
BD,
F2,
FD,
DA,
04,
03,
03,
0C,
04,
27,
FE,
F6,
F1,
F7,
0E,
F9,
FD,
04,
E9,
FF,
03,
1A,
FF,
18,
1D,
02,
EF,
26,
0C,
E5,
F9,
FF,
F3,
DB,
08,
21,
26,
05,
12,
13,
FB,
FC,
FF,
F9,
F6,
EE,
07,
02,
03,
FE,
E8,
EA,
E4,
FA,
ED,
D8,
E9,
E1,
09,
02,
01,
02,
FC,
04,
11,
EA,
F0,
0B,
23,
0B,
21,
05,
FE,
F6,
E5,
E7,
FF,
F9,
F6,
09,
F9,
FD,
FB,
02,
F3,
F2,
E9,
DF,
19,
12,
E6,
16,
F6,
03,
EE,
01,
0C,
06,
E8,
FD,
1B,
FB,
06,
C1,
EE,
F3,
FD,
F8,
FB,
17,
01,
04,
28,
F2,
FD,
0A,
F9,
FF,
EB,
02,
16,
07,
E2,
F6,
03,
F5,
F2,
2D,
D8,
F1,
0F,
00,
E9,
0D,
FE,
04,
FF,
23,
0C,
D4,
E1,
FD,
16,
0C,
02,
FD,
E8,
0A,
E6,
0D,
1E,
1B,
12,
01,
FB,
0B,
F4,
DA,
F7,
07,
FB,
E3,
E3,
00,
28,
0A,
03,
FC,
E7,
FD,
02,
09,
10,
08,
25,
00,
FC,
FD,
F9,
E1,
FD,
0B,
05,
C5,
E9,
07,
FF,
F9,
FF,
E2,
F5,
02,
09,
13,
03,
01,
1A,
1C,
1E,
09,
F4,
06,
E1,
FB,
FF,
F6,
FF,
09,
F8,
0C,
F8,
00,
F6,
F7,
E6,
FB,
18,
07,
E1,
FD,
ED,
00,
FA,
00,
16,
3A,
FF,
FE,
2A,
F7,
FE,
F1,
0E,
FD,
0B,
F3,
E6,
F0,
FF,
FB,
00,
03,
03,
23,
14,
FF,
F8,
E4,
00,
00,
EC,
EF,
F9,
03,
D9,
24,
06,
2F,
1F,
26,
E5,
1F,
04,
03,
FE,
0E,
0B,
E3,
DC,
FF,
13,
18,
04,
01,
11,
F9,
E7,
EE,
1B,
0A,
F0,
E9,
F8,
EF,
03,
F5,
F3,
FD,
EA,
E9,
19,
E7,
12,
0F,
DD,
F9,
05,
FF,
FD,
0C,
13,
10,
13,
FD,
00,
00,
28,
EB,
1B,
07,
20,
F0,
0B,
D8,
E7,
CE,
FF,
CE,
F1,
FD,
18,
00,
1A,
03,
0A,
F7,
FE,
0A,
01,
10,
07,
02,
E8,
F8,
F3,
0D,
01,
10,
FC,
02,
E7,
00,
FD,
0B,
1A,
F9,
E0,
FA,
EB,
03,
08,
F1,
0C,
29,
0B,
03,
FC,
09,
F2,
0E,
06,
0B,
25,
FB,
FD,
F4,
01,
FF,
12,
03,
0A,
F7,
1D,
FC,
F9,
F7,
F4,
17,
FA,
EE,
F4,
06,
07,
04,
F7,
FA,
00,
16,
E2,
FF,
FC,
08,
FF,
FF,
F5,
1E,
EF,
04,
10,
FE,
05,
02,
09,
FD,
E4,
F8,
0D,
10,
F9,
E7,
FA,
F9,
0A,
05,
F5,
09,
F9,
EA,
1D,
F5,
14,
01,
F4,
FB,
04,
FF,
02,
05,
0D,
0D,
FA,
FD,
02,
FD,
16,
FF,
02,
08,
0B,
FC,
18,
D4,
02,
E0,
FC,
FB,
F4,
01,
0C,
F0,
22,
F4,
1A,
F4,
0A,
11,
06,
F6,
FC,
F2,
F8,
FD,
F2,
16,
F9,
06,
FA,
05,
E6,
15,
EE,
1B,
F2,
02,
FF,
10,
08,
FD,
03,
F3,
FD,
F3,
DF,
FB,
E3,
13,
03,
EC,
09,
05,
0E,
F3,
F8,
11,
FE,
F2,
1F,
02,
F4,
F5,
28,
03,
FA,
FB,
F5,
0E,
EE,
04,
04,
03,
07,
ED,
09,
D3,
EE,
F5,
F1,
F3,
FF,
FC,
FF,
FA,
FC,
02,
FA,
FF,
07,
FE,
FE,
FF,
FE,
08,
08,
FD,
FE,
0E,
0D,
02,
01,
07,
15,
08,
07,
1B,
DC,
FA,
1C,
EA,
16,
FD,
11,
05,
02,
FC,
04,
FF,
05,
00,
E8,
01,
FF,
04,
11,
08,
EB,
10,
01,
1D,
10,
E7,
0D,
06,
FF,
0D,
15,
FE,
F0,
F2,
0B,
04,
1B,
F5,
14,
23,
13,
FB,
F0,
F5,
16,
FD,
08,
1F,
FF,
F5,
FE,
03,
E9,
13,
E8,
23,
F2,
FC,
F8,
12,
0A,
03,
FC,
03,
03,
FD,
D9,
FC,
EE,
0A,
FE,
F7,
F5,
07,
05,
06,
F4,
0E,
FE,
05,
15,
01,
E1,
FB,
1A,
FE,
00,
07,
02,
13,
FA,
04,
0E,
02,
11,
07,
24,
E3,
F6,
E4,
06,
0F,
00,
00,
FC,
FB,
FC,
F7,
13,
0B,
FF,
15,
FA,
FE,
F8,
05,
E3,
FC,
1D,
16,
F9,
F1,
0D,
1A,
FF,
13,
02,
F1,
E3,
F7,
17,
F3,
EE,
F3,
0F,
02,
FC,
02,
02,
02,
09,
FC,
0A,
04,
00,
04,
1F,
F4,
13,
12,
06,
EF,
FA,
E1,
0B,
F2,
FF,
FB,
0F,
01,
0E,
ED,
12,
F7,
0B,
0F,
16,
08,
02,
F9,
10,
F5,
FA,
FA,
03,
0C,
01,
09,
03,
FE,
F3,
FD,
0E,
04,
00,
00,
FA,
F5,
04,
00,
FF,
00,
FD,
F9,
F6,
03,
0B,
FE,
F6,
08,
EE,
03,
09,
FC,
03,
04,
04,
FD,
13,
FD,
FC,
F4,
F0,
FF,
FC,
FE,
F4,
FC,
F8,
F3,
F3,
FA,
F6,
FF,
FF,
10,
FB,
EF,
FC,
FC,
FC,
00,
FE,
F6,
FE,
0C,
04,
F8,
08,
12,
FE,
03,
17,
15,
02,
00,
26,
13,
FB,
00,
25,
1D,
06,
0D,
01,
0A,
ED,
D1,
0E,
F9,
E7,
F1,
04,
E4,
00,
02,
FC,
01,
04,
FF,
F9,
FF,
01,
FD,
0B,
EA,
F6,
0F,
12,
1C,
F1,
E4,
EA,
F8,
FC,
FE,
19,
FD,
08,
E2,
15,
02,
04,
28,
11,
FF,
05,
FA,
FD,
F9,
ED,
FD,
0E,
0E,
F5,
FF,
05,
FC,
F6,
07,
13,
F4,
0B,
04,
00,
F3,
0F,
FE,
02,
EA,
08,
FA,
18,
FF,
1E,
04,
F8,
FC,
08,
FE,
11,
10,
EC,
FF,
FE,
0B,
18,
FF,
E6,
F3,
F9,
00,
00,
E5,
FB,
EA,
00,
F8,
FA,
01,
E0,
02,
10,
1A,
08,
F7,
D9,
06,
FD,
00,
03,
F6,
01,
20,
09,
02,
07,
0D,
0D,
FF,
0B,
1A,
02,
FE,
EA,
1F,
06,
FA,
06,
24,
0F,
03,
07,
06,
F8,
11,
18,
06,
0A,
EC,
12,
EC,
05,
02,
FE,
02,
04,
FB,
02,
03,
FD,
FF,
E2,
ED,
FE,
07,
ED,
1F,
F1,
E8,
00,
EE,
01,
F3,
0A,
FE,
23,
F8,
02,
04,
F8,
11,
13,
EE,
18,
F3,
01,
06,
FB,
01,
05,
06,
FA,
EB,
FD,
02,
F3,
0B,
12,
F7,
02,
07,
01,
FE,
07,
00,
10,
FD,
06,
E7,
08,
04,
2A,
F1,
09,
DD,
0E,
F5,
FB,
1C,
FA,
1D,
FE,
09,
16,
01,
0D,
FC,
F0,
FD,
F6,
16,
03,
04,
E7,
F7,
FA,
F9,
19,
08,
FE,
EE,
0D,
F4,
F0,
0C,
03,
F9,
03,
FD,
01,
13,
05,
0A,
FF,
10,
08,
FF,
F9,
FF,
F5,
EE,
F5,
04,
03,
EC,
10,
F6,
0A,
FE,
FD,
EA,
07,
F1,
04,
FD,
0E,
EF,
FE,
F9,
FD,
FD,
00,
07,
0D,
F5,
14,
02,
01,
FF,
FE,
E3,
EC,
0D,
05,
FD,
E6,
EC,
FC,
04,
FE,
19,
16,
FE,
F7,
07,
16,
03,
11,
17,
FD,
ED,
19,
EA,
FA,
00,
EB,
02,
FB,
08,
F6,
F3,
05,
00,
E9,
09,
0E,
02,
EF,
FA,
0B,
EE,
04,
00,
06,
07,
0B,
0C,
F1,
01,
0D,
01,
F8,
05,
0E,
FE,
0D,
06,
EE,
0D,
FE,
FD,
10,
FC,
09,
09,
F1,
FD,
F8,
F4,
00,
F7,
F4,
E9,
ED,
04,
0F,
08,
13,
F9,
EF,
FC,
E0,
F4,
FC,
FA,
03,
FA,
FA,
15,
04,
15,
F4,
0E,
0A,
03,
F2,
F1,
E0,
E7,
0E,
F4,
0B,
07,
01,
F7,
FF,
08,
FC,
F0,
0B,
E5,
05,
0C,
16,
F9,
E0,
E8,
F8,
FD,
00,
EA,
07,
FA,
04,
00,
FF,
04,
00,
D9,
E6,
0A,
02,
DF,
E4,
E8,
03,
D4,
03,
FF,
09,
FD,
09,
E9,
1A,
04,
05,
0B,
01,
F7,
0C,
E8,
FE,
06,
DE,
FC,
06,
04,
F3,
F9,
03,
02,
E5,
09,
0A,
FD,
10,
07,
E7,
F8,
0D,
02,
F9,
04,
06,
FD,
02,
FD,
02,
08,
F4,
F9,
04,
ED,
0E,
06,
F1,
09,
FF,
F4,
0F,
F3,
16,
02,
F2,
02,
F6,
E4,
05,
FD,
EB,
E6,
EA,
02,
03,
04,
11,
07,
08,
08,
E6,
17,
04,
0B,
00,
F6,
FB,
FF,
03,
00,
FF,
21,
0B,
03,
00,
0F,
D9,
08,
0F,
FE,
10,
F2,
FD,
F1,
F9,
E6,
00,
FC,
FE,
E1,
E3,
E9,
1D,
0B,
F1,
E4,
E8,
03,
04,
05,
F9,
F4,
07,
FF,
04,
04,
F4,
DF,
F4,
11,
09,
E8,
E8,
FE,
0B,
EA,
FD,
03,
FA,
03,
18,
F8,
01,
F8,
10,
14,
13,
07,
FD,
ED,
F1,
FF,
E1,
04,
0F,
FC,
F6,
0D,
FD,
00,
EF,
FF,
00,
15,
24,
05,
DD,
FA,
F3,
01,
0A,
E7,
FD,
25,
05,
FE,
10,
F1,
EE,
1A,
F2,
FA,
F3,
F4,
D1,
F2,
01,
FC,
EC,
F8,
FE,
20,
1B,
01,
F3,
E9,
08,
FA,
E8,
FB,
F0,
15,
E3,
25,
F6,
15,
13,
16,
EF,
11,
01,
FD,
03,
08,
12,
F9,
F2,
06,
0B,
ED,
12,
00,
F5,
F5,
D1,
DA,
18,
02,
0A,
0F,
DC,
FA,
E4,
07,
F9,
EE,
05,
EE,
E0,
0D,
1B,
02,
E8,
F2,
F8,
03,
FF,
F7,
00,
F2,
0C,
02,
FC,
02,
F7,
E7,
F5,
FB,
21,
D7,
F7,
F6,
04,
00,
02,
06,
EB,
FE,
10,
FE,
08,
08,
07,
F0,
0E,
16,
EC,
E3,
F8,
04,
EF,
F0,
0B,
04,
F9,
03,
FA,
00,
F2,
03,
FD,
04,
2D,
FF,
F4,
09,
07,
04,
F7,
D2,
F9,
1A,
F2,
FB,
F9,
F1,
E9,
0C,
D9,
FB,
E4,
03,
F3,
F2,
02,
03,
FD,
02,
F5,
06,
25,
04,
EC,
FC,
FE,
10,
F3,
EE,
ED,
0E,
EE,
12,
E4,
FC,
F3,
FF,
0F,
15,
FF,
07,
04,
12,
05,
EE,
E8,
0C,
07,
F0,
1E,
FC,
14,
01,
17,
FD,
1B,
02,
0D,
11,
D4,
FF,
E7,
FD,
04,
FA,
E5,
E2,
09,
FB,
0C,
FD,
E6,
20,
E6,
FD,
03,
FC,
06,
FB,
02,
01,
00,
03,
14,
E9,
EA,
E4,
11,
FE,
D0,
EF,
F8,
EC,
00,
1E,
E4,
02,
03,
F5,
0A,
0D,
11,
03,
12,
28,
E4,
ED,
F9,
F2,
FD,
ED,
05,
08,
00,
02,
F0,
02,
E5,
06,
05,
F1,
24,
03,
EF,
0B,
E5,
03,
F1,
F2,
F8,
FF,
EA,
FD,
FA,
0E,
F6,
FE,
E6,
EC,
F3,
14,
E8,
F9,
FE,
F3,
20,
03,
E8,
0A,
29,
02,
E9,
EB,
FE,
03,
01,
10,
F1,
06,
E6,
09,
EF,
F2,
10,
0A,
FE,
2D,
FC,
09,
03,
0E,
FE,
F5,
FE,
11,
04,
F2,
16,
03,
30,
00,
F9,
07,
04,
F1,
FD,
01,
00,
F2,
E6,
F0,
FE,
0D,
09,
FA,
08,
F7,
EB,
F8,
ED,
0E,
EF,
01,
01,
0B,
05,
F5,
E8,
02,
FE,
03,
11,
D8,
03,
F4,
19,
DA,
AB,
11,
FD,
FD,
02,
0D,
05,
03,
06,
07,
FD,
13,
0C,
0F,
F2,
08,
E0,
FD,
10,
01,
F2,
F9,
F8,
F5,
FB,
0B,
F2,
04,
DA,
03,
0A,
FE,
ED,
FD,
EB,
05,
02,
04,
E5,
E0,
08,
E4,
FA,
FE,
F8,
FF,
DE,
0E,
FA,
E1,
F4,
F7,
F3,
FD,
00,
F1,
F4,
02,
00,
0E,
12,
02,
DC,
FB,
FA,
F9,
0A,
04,
F2,
11,
F0,
FF,
FD,
0E,
11,
14,
F0,
0A,
02,
05,
03,
04,
F8,
0A,
01,
09,
FF,
F6,
06,
01,
26,
FB,
F6,
FC,
0B,
0D,
EC,
FF,
F8,
02,
ED,
FA,
FE,
00,
0F,
F9,
F6,
FA,
02,
EF,
F2,
FB,
F8,
FF,
FF,
13,
0B,
FA,
E9,
00,
FC,
FD,
05,
EB,
ED,
F9,
05,
E6,
CB,
03,
0A,
FC,
FD,
FC,
FC,
FD,
04,
F8,
F4,
15,
07,
F9,
07,
10,
E9,
F5,
18,
0E,
F0,
FA,
F4,
FE,
03,
07,
F0,
FF,
D8,
FB,
15,
FC,
ED,
02,
06,
07,
18,
04,
0B,
E2,
05,
DB,
04,
02,
04,
F4,
D5,
06,
E0,
F8,
F3,
F5,
F4,
F5,
00,
03,
F9,
00,
00,
0B,
13,
04,
FC,
06,
EF,
ED,
0B,
F8,
E8,
0E,
FB,
F2,
F7,
19,
01,
0D,
F5,
FC,
01,
08,
03,
05,
FF,
19,
05,
F6,
FD,
F7,
02,
FE,
09,
F9,
06,
14,
1F,
26,
F8,
04,
FC,
14,
FB,
0F,
06,
F2,
F7,
01,
0C,
FE,
09,
E8,
1C,
ED,
FA,
FD,
01,
07,
07,
FC,
F7,
FE,
FC,
FE,
04,
ED,
FE,
FF,
FD,
18,
BC,
F2,
0C,
04,
02,
F8,
09,
02,
12,
F7,
E9,
FB,
FE,
EA,
1A,
11,
02,
DF,
02,
01,
EC,
F9,
ED,
FC,
0E,
FE,
FF,
01,
F9,
02,
1F,
12,
D5,
FE,
1D,
FF,
0D,
02,
14,
E3,
F7,
C8,
FB,
FF,
F9,
0F,
E4,
FA,
D1,
F9,
EB,
00,
05,
00,
03,
0F,
16,
FC,
FC,
06,
FE,
FE,
05,
02,
F5,
F6,
08,
05,
F2,
10,
0D,
F3,
FA,
05,
F6,
E4,
00,
FA,
02,
0C,
01,
F5,
10,
F8,
01,
05,
EC,
FD,
FE,
04,
16,
FE,
17,
26,
16,
0B,
0F,
0A,
FA,
01,
FA,
11,
04,
06,
01,
0C,
01,
06,
0D,
DD,
15,
FE,
ED,
FB,
FD,
04,
01,
FE,
F8,
FC,
02,
FE,
02,
FF,
13,
F9,
F5,
11,
DD,
FB,
01,
15,
FD,
F5,
09,
02,
FE,
FB,
D9,
ED,
0E,
FA,
07,
FA,
03,
EA,
18,
FF,
F9,
15,
E8,
FB,
09,
00,
07,
03,
E3,
F8,
0E,
FF,
E0,
FE,
FE,
05,
F0,
FC,
0A,
F7,
F3,
C8,
F7,
FF,
01,
0D,
E0,
0A,
F3,
03,
FC,
08,
19,
FF,
03,
0E,
10,
FC,
06,
FF,
F5,
FC,
F8,
15,
FE,
F5,
05,
0B,
F1,
08,
FA,
F8,
07,
0B,
0C,
E8,
FE,
F6,
FF,
00,
05,
F6,
0C,
04,
0C,
11,
EE,
FB,
FE,
01,
FF,
05,
08,
12,
0E,
00,
0D,
17,
F7,
F6,
FD,
03,
00,
15,
00,
07,
FA,
09,
1B,
EC,
12,
04,
E9,
01,
00,
FC,
01,
01,
F4,
FE,
FF,
FD,
02,
21,
07,
FD,
EE,
04,
F3,
0F,
04,
0C,
FC,
FC,
0B,
02,
12,
FF,
DA,
02,
0E,
02,
00,
FA,
0D,
F6,
FA,
04,
23,
10,
E7,
F9,
0A,
01,
FF,
00,
EB,
E0,
F7,
F5,
E4,
02,
06,
0C,
02,
04,
09,
04,
F2,
E0,
F1,
01,
0D,
0A,
09,
08,
09,
06,
04,
0C,
09,
F7,
03,
12,
09,
F8,
0A,
F8,
04,
02,
15,
09,
07,
F5,
FE,
06,
EE,
F8,
F6,
FC,
15,
0C,
0C,
FA,
FF,
F9,
FB,
00,
FD,
F4,
0C,
09,
00,
0E,
E2,
03,
01,
00,
E9,
13,
F8,
FE,
0C,
07,
08,
0F,
08,
05,
FE,
02,
00,
1C,
F8,
FF,
01,
07,
11,
05,
F9,
05,
0C,
04,
FE,
0D,
06,
EE,
05,
FE,
FD,
02,
07,
04,
0F,
09,
01,
F1,
01,
08,
01,
F4,
04,
01,
00,
02,
02,
03,
D1,
00,
14,
0A,
F8,
0B,
0E,
F0,
EA,
04,
10,
10,
FE,
06,
0A,
04,
08,
00,
F7,
FA,
F0,
02,
03,
FB,
01,
04,
0F,
02,
FB,
09,
FA,
FE,
05,
01,
10,
FB,
06,
03,
EB,
03,
11,
14,
F5,
FD,
FE,
09,
01,
F8,
10,
F9,
09,
03,
05,
F5,
00,
FF,
05,
FD,
F7,
02,
03,
0B,
0C,
FF,
1B,
0F,
08,
0B,
02,
F8,
FF,
FF,
08,
0A,
05,
19,
04,
04,
02,
FC,
F6,
1E,
01,
FD,
02,
09,
FE,
07,
0E,
0C,
07,
09,
05,
0D,
F7,
04,
0E,
17,
0C,
16,
09,
14,
0F,
FF,
00,
13,
FB,
E2,
02,
FF,
FC,
FF,
FC,
00,
18,
01,
00,
FD,
11,
FB,
00,
F9,
01,
FB,
13,
FE,
F9,
06,
E9,
F4,
FF,
02,
F7,
04,
1B,
F3,
E9,
00,
FA,
11,
FB,
0C,
0A,
03,
02,
01,
07,
06,
FA,
04,
14,
FA,
03,
0F,
13,
FF,
E9,
05,
F6,
05,
F5,
FF,
FF,
00,
F7,
ED,
ED,
12,
0C,
15,
04,
F9,
03,
17,
07,
FB,
19,
F6,
07,
FE,
D0,
F4,
03,
05,
04,
F4,
FD,
05,
10,
FE,
07,
DC,
15,
F4,
F7,
09,
FD,
01,
FE,
01,
09,
0F,
00,
20,
0D,
0A,
FC,
02,
F1,
0F,
13,
05,
F5,
10,
F5,
03,
14,
0B,
0E,
11,
FE,
12,
FF,
0B,
0A,
17,
0D,
19,
1A,
15,
10,
01,
FC,
19,
0A,
F1,
04,
FC,
FE,
02,
F0,
F8,
14,
08,
FE,
0F,
0B,
F5,
FF,
F8,
FF,
05,
1F,
FC,
FA,
08,
F4,
F1,
F5,
06,
F1,
F7,
14,
FB,
E4,
06,
F6,
14,
09,
FE,
00,
01,
05,
FE,
0C,
06,
FC,
F7,
0A,
FD,
0B,
10,
19,
FD,
F8,
06,
F6,
0E,
EB,
01,
F9,
0C,
F7,
E1,
F8,
14,
0C,
1C,
05,
0F,
02,
18,
09,
01,
14,
FB,
06,
03,
DA,
F8,
00,
F8,
01,
F6,
00,
F8,
1C,
FD,
14,
D6,
11,
E8,
FC,
FF,
FE,
03,
FD,
F6,
0B,
00,
10,
11,
FD,
08,
00,
03,
FA,
11,
08,
00,
FA,
F7,
13,
01,
12,
09,
03,
03,
08,
13,
05,
05,
FF,
0C,
11,
15,
04,
0C,
08,
01,
01,
0F,
F1,
D9,
13,
02,
03,
FF,
F1,
00,
06,
05,
05,
03,
09,
02,
FA,
F9,
FD,
0B,
13,
04,
F0,
11,
DB,
F5,
F6,
0A,
F7,
F5,
13,
F4,
E8,
FF,
0A,
0E,
F5,
05,
03,
03,
EF,
01,
05,
F6,
F1,
F5,
11,
FA,
01,
0F,
0B,
00,
EB,
0C,
FD,
0C,
02,
01,
17,
FC,
0A,
FF,
EE,
10,
12,
15,
FD,
FC,
03,
10,
0E,
FF,
15,
F6,
05,
00,
09,
FA,
08,
F3,
02,
EF,
FB,
00,
15,
FF,
17,
ED,
1C,
08,
FA,
00,
FF,
04,
FC,
F4,
0D,
09,
FF,
0F,
E8,
06,
F9,
FD,
02,
F9,
01,
11,
FF,
FF,
10,
17,
0D,
07,
00,
09,
08,
17,
05,
03,
FD,
12,
0D,
F9,
0E,
04,
F7,
FC,
04,
F0,
F0,
F3,
05,
00,
FE,
FE,
F5,
17,
04,
00,
DA,
03,
ED,
10,
FC,
0F,
FC,
FB,
12,
01,
00,
11,
D3,
FE,
01,
0D,
08,
F9,
1C,
F3,
F1,
02,
14,
08,
E3,
07,
09,
03,
02,
FE,
F7,
E5,
02,
FA,
F6,
02,
FE,
10,
FE,
FC,
04,
07,
FF,
E4,
01,
FD,
0B,
F6,
09,
07,
E5,
05,
0C,
03,
0C,
FF,
FD,
0A,
07,
FC,
19,
F9,
F2,
FF,
0B,
06,
08,
05,
FD,
16,
FD,
FB,
06,
FB,
0E,
F5,
18,
F2,
03,
F4,
00,
FD,
FD,
00,
04,
0C,
06,
09,
EC,
FC,
01,
00,
0E,
FE,
16,
21,
07,
FB,
06,
0C,
FE,
03,
02,
05,
03,
19,
FC,
07,
EF,
03,
0E,
E2,
1A,
09,
E7,
00,
FD,
FB,
F5,
0C,
F8,
FF,
FE,
FC,
F5,
11,
15,
F9,
DE,
13,
E8,
0D,
01,
1D,
FC,
F4,
17,
FF,
00,
21,
C1,
F4,
0E,
11,
F8,
F7,
01,
04,
FE,
02,
04,
0A,
F2,
F5,
07,
06,
00,
03,
FA,
E7,
02,
04,
DD,
FD,
05,
1F,
F9,
01,
FD,
04,
FC,
C5,
FF,
FF,
08,
FF,
F4,
1E,
DA,
F3,
F7,
02,
16,
07,
FC,
0E,
0E,
FB,
0C,
FB,
EA,
01,
FE,
1E,
07,
FA,
03,
14,
FD,
00,
FD,
F1,
06,
12,
18,
E5,
F7,
F2,
FF,
FD,
04,
F2,
10,
09,
0B,
03,
00,
FE,
01,
FC,
11,
EC,
22,
0B,
13,
19,
03,
00,
FA,
0F,
09,
18,
08,
08,
00,
09,
0A,
0D,
08,
DE,
21,
EF,
F8,
03,
02,
0D,
F3,
01,
EC,
01,
FD,
FF,
04,
F1,
11,
04,
F0,
1C,
BB,
F7,
08,
1D,
FE,
F1,
21,
FE,
00,
0C,
CF,
F7,
FB,
05,
0E,
03,
00,
00,
11,
F7,
04,
01,
F2,
FE,
05,
02,
05,
00,
04,
EB,
13,
04,
D7,
00,
0F,
0E,
0E,
FE,
F0,
06,
04,
B8,
FF,
00,
06,
FA,
FB,
13,
DF,
EF,
EB,
07,
0E,
10,
00,
15,
13,
F8,
FE,
02,
E4,
01,
F2,
0A,
FF,
F1,
FE,
F9,
F2,
FF,
01,
EF,
06,
13,
05,
E1,
F5,
F0,
FC,
09,
00,
FB,
0B,
02,
15,
F6,
10,
0B,
05,
03,
18,
EF,
F4,
F9,
13,
08,
11,
03,
06,
04,
FA,
0D,
FE,
FC,
09,
11,
09,
1D,
FA,
E8,
10,
F6,
04,
02,
01,
F5,
FC,
FB,
E1,
FD,
FC,
02,
01,
DA,
0F,
0B,
F5,
01,
CA,
F7,
15,
08,
FC,
FA,
11,
04,
01,
06,
E2,
FB,
FB,
03,
15,
FC,
F5,
FE,
0A,
FE,
F7,
EE,
F2,
07,
05,
01,
03,
01,
F9,
EF,
21,
FA,
D5,
FE,
07,
04,
20,
FF,
05,
F5,
0C,
E3,
F9,
FC,
F2,
EB,
F7,
FC,
DC,
DB,
F2,
FA,
13,
0B,
04,
0B,
0F,
01,
1A,
08,
F5,
01,
FD,
0D,
F6,
EE,
F7,
ED,
F5,
09,
10,
01,
F1,
08,
F4,
F3,
E4,
07,
FF,
08,
03,
08,
F8,
07,
FF,
01,
17,
0B,
0E,
03,
2A,
FD,
0D,
01,
F7,
EC,
FE,
F9,
FA,
FF,
F1,
E6,
F9,
03,
09,
0E,
F3,
1B,
10,
E6,
FC,
20,
E7,
00,
01,
06,
05,
F7,
EE,
FF,
03,
FE,
FE,
E8,
04,
F5,
FE,
DA,
B1,
06,
FE,
F7,
FF,
F1,
05,
01,
FE,
18,
EB,
11,
04,
11,
02,
F9,
03,
10,
13,
07,
F0,
F9,
E9,
0A,
FB,
0A,
ED,
FD,
E3,
F2,
0A,
E2,
EF,
FA,
F9,
08,
0A,
FE,
FA,
03,
07,
F4,
F5,
01,
F9,
F6,
04,
FF,
FC,
E0,
04,
05,
0E,
12,
FC,
F4,
F4,
04,
15,
0D,
0B,
00,
D6,
0E,
03,
FF,
0A,
E5,
EC,
16,
03,
0D,
F5,
09,
FD,
0A,
E6,
01,
03,
02,
04,
07,
04,
27,
00,
0A,
09,
E3,
0D,
00,
29,
ED,
0C,
04,
07,
FA,
10,
01,
E4,
14,
E2,
08,
F5,
12,
FC,
0D,
FE,
1F,
1C,
FD,
13,
16,
E5,
FE,
FE,
09,
03,
F5,
EE,
00,
04,
04,
13,
F5,
02,
FF,
0A,
DF,
BA,
E9,
FF,
FE,
FC,
0F,
F0,
FE,
04,
0B,
06,
00,
0C,
02,
00,
0F,
0E,
08,
18,
F6,
0C,
09,
E6,
0E,
F4,
0B,
EB,
03,
E0,
F8,
10,
EE,
FD,
FF,
EE,
11,
FF,
02,
FF,
02,
FE,
FD,
F6,
00,
12,
FC,
0A,
02,
FB,
FB,
F8,
06,
1A,
04,
01,
F8,
18,
02,
06,
0E,
12,
FF,
CC,
03,
08,
09,
0F,
FE,
FB,
24,
FB,
0C,
CE,
07,
01,
06,
F6,
15,
FE,
02,
FC,
10,
04,
0F,
EE,
FD,
EF,
EF,
0F,
FF,
FC,
F6,
01,
F5,
05,
E3,
22,
02,
D5,
0E,
E9,
03,
FD,
03,
F0,
F8,
03,
16,
1A,
09,
F2,
0B,
F8,
00,
FE,
FB,
01,
F5,
F8,
00,
00,
04,
FE,
F1,
F7,
E0,
0B,
C6,
E8,
DE,
00,
EB,
01,
10,
E0,
03,
00,
F9,
01,
09,
10,
03,
FD,
23,
14,
05,
0D,
EE,
08,
F5,
ED,
15,
F6,
06,
F1,
00,
E5,
FF,
F7,
F7,
FA,
0B,
E4,
16,
03,
04,
01,
FA,
06,
1A,
EE,
FF,
FA,
03,
08,
F2,
F3,
EA,
FE,
FE,
02,
02,
03,
07,
16,
05,
0C,
0D,
15,
FD,
E9,
FC,
18,
17,
01,
DC,
F7,
0E,
00,
1F,
D5,
EC,
01,
FC,
F7,
17,
03,
FC,
01,
09,
0F,
F7,
ED,
F5,
03,
ED,
FF,
03,
F5,
F4,
0B,
F9,
06,
08,
15,
FA,
E3,
03,
0D,
EB,
0A,
FE,
FA,
E8,
FB,
03,
1C,
06,
F4,
FE,
EC,
04,
03,
FB,
FF,
F5,
F7,
FD,
FD,
04,
EB,
E1,
02,
F9,
04,
D4,
E8,
05,
F3,
E5,
01,
EE,
E7,
00,
09,
F5,
F9,
13,
07,
15,
08,
1E,
EE,
EF,
06,
F5,
06,
F7,
05,
1A,
F6,
12,
F9,
FE,
F6,
FF,
EE,
0A,
04,
08,
E7,
15,
F3,
03,
E3,
EB,
0E,
10,
F5,
FD,
F6,
F8,
19,
F6,
1A,
F4,
06,
07,
E2,
14,
FD,
F3,
12,
FE,
19,
1E,
20,
FF,
FB,
F2,
14,
21,
F2,
EC,
FC,
0B,
F0,
12,
03,
07,
10,
11,
DB,
25,
FE,
FC,
FB,
15,
03,
F4,
F2,
FE,
F1,
0C,
FA,
02,
EF,
01,
FC,
DE,
1B,
05,
0F,
E0,
F4,
07,
FC,
EF,
03,
05,
F6,
E7,
1E,
06,
1E,
FC,
FC,
F5,
04,
FD,
02,
F8,
00,
FD,
09,
FC,
FF,
02,
00,
E7,
0C,
FC,
12,
EE,
F1,
E6,
EB,
D9,
03,
F1,
EA,
FE,
04,
FB,
16,
14,
0A,
01,
F7,
22,
06,
F4,
05,
04,
E2,
FB,
0E,
1B,
F3,
16,
F2,
01,
E2,
F6,
EB,
20,
FD,
01,
E5,
04,
FC,
00,
F1,
EC,
16,
13,
F7,
FC,
08,
FC,
0C,
F2,
16,
F7,
10,
0D,
F6,
F9,
FD,
F6,
FE,
F6,
20,
20,
26,
02,
FD,
F2,
0D,
1D,
F7,
E0,
FD,
19,
EA,
FD,
0B,
FD,
04,
21,
DB,
FE,
FD,
05,
FF,
0A,
F3,
09,
E9,
12,
F7,
03,
03,
FE,
09,
0B,
F6,
EF,
0E,
0A,
FE,
E2,
F4,
FD,
FF,
06,
06,
FF,
F4,
04,
1C,
F9,
0B,
02,
F8,
F6,
05,
FE,
FD,
02,
01,
0C,
F3,
00,
03,
FC,
0D,
F6,
0F,
08,
15,
FC,
FC,
D8,
EC,
EA,
01,
F9,
E1,
FD,
0B,
FB,
26,
0B,
F8,
F4,
FA,
07,
1B,
F3,
10,
FD,
F2,
FB,
06,
21,
F8,
0F,
F9,
FE,
E7,
13,
ED,
08,
F8,
FC,
F3,
FB,
04,
FF,
FB,
F9,
01,
F5,
F0,
FE,
EA,
0B,
FF,
EE,
15,
03,
10,
0D,
F1,
17,
02,
F2,
16,
FD,
07,
FB,
11,
02,
07,
0A,
06,
16,
FE,
EE,
F5,
0B,
05,
FD,
15,
DC,
F7,
00,
ED,
EA,
FF,
F4,
02,
08,
F7,
0D,
F6,
0E,
F5,
FA,
01,
00,
FD,
13,
02,
0A,
F0,
09,
12,
F6,
FF,
18,
0B,
FE,
0E,
0B,
F9,
F6,
25,
F9,
18,
F7,
09,
FD,
01,
FE,
03,
F3,
00,
F5,
FE,
02,
00,
FC,
04,
0A,
F4,
0D,
EF,
1D,
0F,
E7,
F7,
12,
02,
0F,
03,
FF,
F0,
EE,
09,
1A,
01,
F0,
01,
1C,
FF,
E9,
F1,
FF,
08,
01,
1A,
23,
04,
09,
FB,
FF,
E6,
0D,
DA,
17,
EA,
FC,
F3,
05,
14,
03,
FF,
FB,
0B,
F3,
E1,
FF,
00,
09,
01,
FF,
05,
F2,
0B,
0E,
F3,
28,
FD,
FA,
16,
FE,
FC,
FE,
0D,
FC,
FF,
F4,
0C,
03,
12,
F7,
09,
06,
0E,
07,
12,
DF,
FE,
F4,
F1,
EF,
FE,
FA,
02,
F9,
00,
0D,
07,
0A,
ED,
0E,
FB,
03,
08,
15,
FE,
FA,
11,
17,
18,
F3,
07,
28,
0C,
09,
FC,
F2,
F6,
02,
1A,
F9,
EC,
F0,
14,
02,
00,
03,
FD,
F0,
FB,
EE,
08,
00,
FE,
04,
06,
F2,
0B,
07,
FA,
FE,
F9,
DD,
FC,
F7,
03,
F5,
13,
FD,
02,
EA,
04,
10,
07,
0D,
10,
02,
14,
E3,
FD,
F3,
F6,
03,
0C,
1C,
FD,
FC,
03,
03,
EB,
FD,
FD,
F2,
FD,
FC,
02,
F2,
0E,
FD,
F5,
FE,
0F,
FA,
04,
00,
14,
FF,
F7,
F8,
02,
F7,
0B,
12,
0B,
15,
01,
F6,
12,
FE,
05,
00,
EB,
04,
F9,
08,
16,
EE,
09,
ED,
FA,
EF,
F5,
08,
12,
F4,
02,
ED,
E8,
F2,
FC,
FC,
FC,
F6,
FD,
12,
00,
F3,
02,
F6,
01,
FD,
15,
19,
09,
F9,
04,
11,
F9,
11,
08,
23,
FF,
14,
0F,
0B,
F1,
01,
15,
1C,
FB,
FF,
05,
F3,
03,
04,
FF,
06,
03,
FC,
D7,
04,
FF,
FE,
F7,
EE,
0D,
09,
F7,
22,
08,
DC,
EF,
0A,
02,
04,
18,
04,
09,
E5,
1F,
02,
FD,
EC,
15,
04,
02,
FD,
F9,
FA,
FB,
FB,
1F,
0A,
F8,
04,
00,
02,
FA,
06,
14,
05,
F5,
06,
EB,
0E,
0A,
FF,
03,
03,
FF,
F5,
FA,
02,
FD,
00,
1C,
E7,
15,
F8,
01,
18,
03,
1D,
02,
0C,
16,
00,
FB,
E3,
08,
FC,
FF,
06,
02,
FD,
0A,
05,
07,
11,
05,
F7,
FA,
EC,
F6,
D5,
10,
FA,
FF,
09,
FD,
04,
FB,
28,
0B,
F0,
08,
F7,
04,
02,
F8,
0B,
09,
F5,
F2,
11,
FC,
01,
FC,
13,
F3,
FD,
F0,
11,
02,
E0,
0C,
13,
2A,
09,
24,
FE,
02,
FE,
01,
E7,
06,
FF,
13,
FE,
03,
03,
F4,
01,
E7,
0A,
F1,
18,
12,
01,
F5,
F0,
04,
F4,
EB,
FC,
00,
F5,
F9,
FB,
23,
03,
0D,
08,
02,
05,
E6,
03,
0B,
FD,
0A,
F1,
F5,
E8,
01,
FC,
04,
06,
0C,
19,
FE,
0E,
E6,
06,
08,
01,
04,
F4,
03,
06,
01,
04,
FA,
F5,
02,
F7,
13,
FD,
F7,
0A,
E7,
00,
FF,
0C,
16,
00,
03,
07,
0C,
02,
FE,
F9,
00,
01,
FB,
FF,
F7,
FE,
FC,
03,
EB,
FA,
F7,
EA,
05,
06,
FC,
00,
00,
FA,
FA,
26,
FB,
03,
FC,
06,
03,
01,
ED,
FD,
F6,
E6,
11,
F6,
0F,
F7,
0E,
ED,
E9,
FB,
04,
ED,
17,
D3,
05,
F6,
1F,
F7,
FB,
FF,
FF,
04,
FC,
DE,
06,
FC,
17,
00,
FF,
FF,
11,
E2,
E9,
0E,
FA,
F9,
FF,
F9,
F6,
F0,
03,
13,
10,
02,
04,
FE,
16,
FF,
23,
08,
01,
0F,
0F,
E8,
E3,
F9,
E9,
F8,
0A,
10,
EA,
F4,
08,
02,
EC,
00,
06,
26,
F2,
05,
F7,
F9,
0F,
00,
0C,
F8,
FF,
06,
FE,
FD,
12,
FB,
EB,
15,
0C,
FB,
0E,
03,
E8,
07,
03,
FB,
10,
F4,
02,
1B,
07,
01,
FC,
F3,
FD,
F5,
EB,
ED,
F7,
05,
E0,
00,
07,
FE,
EF,
EF,
F3,
FB,
01,
F9,
02,
FC,
02,
1D,
00,
1D,
EC,
12,
09,
FF,
01,
DA,
E0,
D9,
F5,
F9,
07,
0B,
0D,
F7,
05,
01,
02,
EB,
08,
FE,
0F,
12,
06,
EC,
E8,
FC,
FB,
01,
01,
EB,
F4,
FA,
03,
01,
FE,
02,
F0,
D4,
F4,
0D,
09,
E2,
F9,
DA,
02,
D0,
FD,
F7,
0D,
03,
00,
F6,
1C,
00,
F9,
13,
F5,
EF,
0A,
E4,
1A,
FE,
E0,
FB,
07,
16,
F2,
FF,
FD,
01,
E8,
F2,
0C,
F3,
00,
0C,
E2,
EA,
0D,
FD,
FD,
FB,
04,
10,
FA,
FA,
F7,
EE,
E2,
07,
0E,
F1,
18,
06,
FA,
16,
FC,
F2,
10,
F7,
26,
0A,
E6,
FD,
FA,
08,
FF,
03,
EC,
DD,
E9,
0C,
05,
09,
08,
F8,
F2,
18,
F9,
1A,
FC,
FE,
FC,
FC,
FA,
2D,
F6,
07,
FB,
04,
11,
03,
07,
F5,
EA,
E7,
18,
0C,
08,
FE,
E4,
FD,
F1,
07,
F8,
E8,
EE,
F8,
FF,
F0,
0C,
FB,
F3,
FB,
E7,
FD,
FD,
F9,
F0,
F2,
01,
FF,
FD,
FD,
02,
E6,
FB,
0E,
1E,
E8,
F7,
F3,
0C,
E4,
02,
E4,
F6,
FF,
02,
07,
01,
01,
08,
11,
09,
09,
FC,
FA,
0C,
00,
F6,
FC,
09,
0E,
02,
0A,
FD,
03,
EF,
FE,
03,
FE,
1E,
03,
F1,
F1,
0D,
01,
FC,
E2,
FA,
37,
FC,
FC,
FC,
F0,
ED,
09,
E7,
FE,
F0,
FA,
F5,
F9,
03,
FC,
F2,
FF,
00,
14,
10,
06,
F0,
FF,
04,
FB,
FA,
FA,
EC,
12,
EF,
0E,
E4,
04,
FA,
1A,
05,
00,
02,
FE,
03,
05,
04,
F8,
EA,
06,
05,
FC,
0E,
03,
12,
02,
FD,
E2,
1F,
F4,
09,
01,
ED,
ED,
E4,
F8,
02,
F4,
EA,
EB,
F4,
EF,
14,
E7,
C6,
0B,
EA,
00,
00,
ED,
FC,
EF,
0D,
03,
FB,
FD,
07,
DB,
04,
ED,
14,
F7,
E7,
F4,
FC,
D9,
FF,
F6,
DF,
02,
F9,
F8,
0B,
FF,
03,
F2,
05,
18,
0B,
E7,
0A,
F9,
E6,
FE,
FC,
12,
F5,
05,
00,
06,
E7,
01,
19,
F8,
1B,
08,
FF,
01,
F3,
FF,
FF,
EC,
03,
FF,
0E,
FE,
04,
05,
E6,
0B,
ED,
FB,
FF,
0A,
E2,
E0,
FF,
F5,
0A,
FF,
F8,
05,
09,
02,
E8,
EA,
F3,
FD,
FE,
E4,
FB,
04,
FC,
14,
F8,
F4,
05,
14,
01,
1C,
00,
04,
FE,
FF,
02,
E2,
EC,
12,
02,
1C,
10,
00,
06,
FC,
E9,
0B,
09,
F7,
0A,
07,
14,
F3,
F2,
FD,
01,
0E,
F7,
FF,
EA,
F3,
F3,
EB,
DC,
FA,
E2,
01,
02,
FC,
F6,
F8,
04,
FC,
03,
FE,
FD,
E1,
00,
F0,
0B,
DD,
D7,
18,
06,
F3,
01,
F9,
EF,
02,
F1,
07,
09,
FD,
05,
08,
DD,
20,
04,
E4,
F6,
FB,
F1,
F7,
F0,
00,
04,
05,
F1,
00,
E2,
02,
08,
09,
EB,
05,
02,
03,
0D,
03,
E9,
E5,
08,
F5,
12,
04,
FA,
04,
02,
05,
EF,
F4,
00,
F1,
EB,
E8,
04,
EF,
FE,
03,
FB,
0D,
F2,
FD,
E2,
F8,
ED,
FD,
FB,
EC,
FA,
06,
0F,
10,
EE,
0B,
07,
1B,
E7,
17,
02,
0A,
FD,
F7,
FB,
00,
E1,
0A,
11,
0C,
09,
FE,
14,
0D,
C9,
F3,
02,
F5,
F0,
F0,
0D,
F3,
F2,
FA,
02,
11,
0D,
0A,
EB,
F3,
EC,
FA,
E7,
F0,
03,
01,
FE,
0B,
F7,
03,
F1,
00,
03,
FE,
00,
E7,
F8,
FB,
0B,
DC,
E8,
0B,
14,
F8,
FE,
E0,
FB,
00,
1A,
FB,
FD,
25,
02,
04,
01,
08,
02,
F2,
F4,
03,
F3,
F7,
ED,
F3,
0A,
00,
DB,
FE,
D5,
FC,
F7,
02,
D6,
00,
F0,
F9,
0A,
02,
EA,
F4,
07,
E4,
1C,
05,
12,
01,
D4,
02,
F2,
FC,
FF,
EE,
FA,
F6,
03,
FD,
F4,
F7,
08,
0C,
04,
FF,
E4,
D8,
F7,
F8,
01,
F4,
F8,
13,
0D,
0E,
E1,
02,
03,
20,
F3,
FE,
00,
0B,
FF,
02,
EE,
1C,
D8,
08,
07,
06,
01,
03,
07,
05,
C1,
E4,
11,
0A,
ED,
EE,
F8,
00,
FD,
EF,
06,
F7,
FC,
F8,
01,
FF,
03,
00,
F8,
02,
F2,
FD,
01,
10,
03,
F7,
FD,
FE,
03,
02,
0C,
EA,
E6,
F9,
FE,
DC,
06,
F4,
0C,
E9,
01,
F6,
F5,
01,
0F,
DC,
01,
11,
08,
FA,
0C,
0A,
F9,
01,
FD,
07,
F2,
F3,
EE,
E9,
0B,
03,
E6,
FF,
C8,
FC,
09,
F5,
EA,
F6,
F5,
E9,
05,
FF,
02,
F1,
FB,
F6,
06,
01,
09,
0C,
DD,
F4,
CC,
00,
FF,
FB,
07,
05,
FC,
07,
F0,
F6,
FF,
01,
03,
02,
05,
E8,
F3,
F1,
FE,
F9,
F4,
04,
09,
0B,
F5,
F9,
05,
14,
06,
0D,
01,
06,
02,
07,
04,
04,
EC,
04,
0C,
01,
00,
FC,
05,
14,
DF,
FB,
0A,
F8,
EE,
F3,
04,
FB,
FF,
00,
04,
F2,
FB,
FD,
17,
F3,
F9,
00,
11,
FE,
02,
FE,
FF,
07,
13,
08,
0F,
00,
00,
04,
0F,
FF,
F2,
00,
E1,
FD,
15,
F3,
04,
FC,
03,
04,
03,
FC,
FF,
D8,
00,
04,
07,
01,
0F,
05,
02,
0A,
F4,
05,
F9,
00,
F4,
F7,
FA,
05,
00,
FE,
EA,
FC,
14,
0B,
05,
FB,
00,
DF,
F9,
FD,
14,
F5,
F1,
00,
03,
FF,
08,
0C,
E6,
F2,
C4,
24,
F3,
04,
16,
05,
00,
00,
09,
F1,
F9,
F8,
00,
FD,
00,
FA,
F2,
E9,
05,
F8,
EF,
0B,
07,
04,
FD,
F8,
F3,
FC,
08,
12,
FF,
F9,
03,
01,
08,
FC,
F3,
F6,
F6,
08,
FC,
FF,
15,
11,
E3,
09,
FB,
F3,
10,
F9,
03,
F4,
00,
0A,
06,
FC,
FF,
00,
03,
EE,
FE,
0B,
FB,
01,
FF,
FE,
FF,
FD,
FF,
FC,
06,
03,
03,
04,
02,
1A,
FC,
F7,
F3,
F5,
1A,
FD,
F3,
F3,
FF,
04,
FA,
00,
FA,
FF,
E9,
F1,
06,
06,
0A,
04,
FF,
F5,
FE,
FE,
0F,
01,
EE,
FA,
03,
FF,
F4,
02,
E1,
04,
08,
FE,
0F,
F7,
05,
EE,
F2,
00,
06,
FA,
FA,
06,
07,
FB,
00,
FC,
F5,
0E,
ED,
0C,
FA,
09,
14,
FC,
00,
FB,
00,
F5,
FE,
F7,
FE,
FD,
FE,
07,
12,
F2,
FD,
F8,
F4,
0B,
06,
0A,
00,
F1,
0F,
02,
01,
0D,
FD,
FB,
04,
F4,
FE,
03,
F2,
F2,
ED,
FD,
F6,
02,
F7,
10,
EB,
08,
02,
F7,
FA,
07,
F6,
EC,
FF,
04,
01,
01,
FD,
01,
FA,
F9,
00,
FE,
F4,
F9,
01,
FE,
FC,
F9,
F9,
F2,
FB,
00,
FC,
01,
03,
26,
FB,
F6,
FF,
EB,
02,
04,
FE,
FD,
FE,
07,
FD,
00,
09,
01,
EC,
FD,
FF,
F6,
FC,
08,
F2,
FC,
EE,
0D,
1C,
04,
FD,
0B,
FF,
04,
05,
02,
ED,
FF,
F7,
00,
0B,
FF,
03,
05,
EE,
FC,
01,
04,
F3,
FB,
05,
FC,
F8,
F3,
10,
1D,
EF,
10,
F9,
0C,
FF,
FE,
02,
FE,
F7,
F4,
F5,
F6,
00,
00,
FC,
FE,
17,
09,
05,
FA,
F4,
04,
F1,
FA,
FF,
0A,
09,
FD,
06,
08,
00,
F4,
FE,
F4,
00,
07,
02,
F5,
02,
F4,
FB,
FE,
F8,
06,
FD,
07,
05,
F4,
06,
07,
02,
E4,
FC,
F0,
05,
FC,
0E,
FD,
EE,
FF,
FE,
F6,
F9,
F9,
FA,
FB,
FF,
0D,
FE,
F2,
10,
FC,
FC,
FC,
00,
FD,
05,
F8,
03,
F4,
F6,
0B,
05,
02,
FE,
11,
01,
03,
FA,
0A,
E4,
FF,
F6,
FA,
EF,
03,
FD,
01,
F0,
10,
0B,
0E,
02,
0B,
F7,
07,
05,
06,
F5,
E9,
F4,
FA,
05,
FE,
0C,
06,
F7,
01,
16,
08,
FA,
03,
02,
00,
07,
F7,
00,
19,
E6,
F5,
0A,
04,
F8,
FF,
FC,
01,
F4,
F2,
01,
F9,
05,
01,
12,
06,
06,
FF,
02,
E8,
F6,
03,
EF,
02,
0B,
0C,
01,
09,
FD,
F8,
03,
F5,
02,
F5,
01,
0B,
00,
F2,
12,
01,
FD,
FC,
06,
0F,
07,
FF,
FF,
F4,
F4,
FC,
03,
FD,
FB,
EE,
FD,
05,
08,
10,
07,
07,
06,
0F,
FB,
02,
07,
FD,
FC,
21,
04,
E7,
0D,
FD,
FE,
FD,
04,
E4,
0F,
FE,
FE,
01,
0D,
FF,
01,
08,
03,
0D,
0A,
01,
06,
11,
06,
F4,
EF,
08,
FF,
F8,
14,
FC,
F2,
0E,
FC,
19,
0D,
FE,
FE,
05,
04,
FD,
FA,
0B,
F7,
09,
16,
02,
00,
FD,
FA,
FE,
04,
11,
F7,
10,
FD,
FC,
14,
FB,
F7,
09,
E0,
04,
18,
0A,
FC,
09,
01,
FE,
00,
EE,
15,
EB,
08,
02,
DB,
F9,
05,
F0,
01,
E9,
FD,
FF,
13,
05,
10,
EF,
F8,
F9,
0B,
04,
01,
F5,
04,
F9,
03,
02,
FA,
FC,
10,
04,
00,
FB,
01,
14,
0D,
04,
F6,
F9,
00,
01,
0B,
06,
01,
FC,
FB,
12,
02,
11,
12,
13,
0C,
1C,
09,
10,
07,
FE,
FC,
2B,
01,
F2,
19,
00,
FE,
FF,
FD,
D3,
0B,
02,
FA,
0C,
0A,
FB,
0A,
09,
01,
1E,
10,
01,
09,
07,
01,
0D,
FD,
13,
F9,
EF,
07,
FA,
EE,
16,
E8,
0E,
07,
07,
F8,
07,
04,
00,
FB,
07,
FF,
FD,
16,
FE,
01,
03,
F3,
FC,
07,
0C,
00,
1C,
EF,
02,
0B,
F7,
DF,
F5,
E4,
0A,
04,
14,
05,
18,
FD,
09,
0C,
F9,
07,
F2,
03,
FC,
E0,
F8,
0D,
E5,
FE,
DF,
FA,
04,
14,
10,
15,
F3,
FF,
ED,
08,
02,
FB,
FF,
01,
F3,
02,
FB,
0B,
F9,
09,
FE,
00,
00,
0B,
0F,
09,
02,
F4,
F4,
11,
00,
FE,
F5,
FA,
F1,
00,
07,
0A,
FD,
F9,
05,
0B,
03,
FD,
0D,
FC,
FD,
FF,
11,
F2,
EC,
0B,
03,
FF,
FF,
05,
FE,
04,
FD,
00,
0C,
06,
06,
03,
05,
01,
1D,
0C,
FB,
00,
0B,
FE,
08,
FC,
11,
F6,
EC,
FF,
05,
FB,
0D,
FB,
06,
FE,
09,
F6,
00,
FE,
01,
FC,
FA,
F8,
F9,
09,
03,
0C,
02,
F4,
FC,
0E,
09,
F8,
0C,
F5,
01,
04,
F1,
06,
0C,
ED,
05,
FE,
04,
F8,
03,
FD,
00,
05,
F2,
07,
FE,
0A,
00,
FF,
09,
10,
F0,
03,
F5,
F7,
03,
F4,
06,
15,
F9,
07,
FA,
FD,
FF,
FD,
F7,
FF,
F6,
04,
0A,
11,
E8,
02,
FD,
03,
00,
00,
04,
F0,
04,
F2,
F4,
0A,
FE,
01,
F6,
06,
EB,
0C,
02,
05,
FC,
01,
FA,
03,
EC,
00,
0A,
F7,
FE,
FC,
F5,
EA,
F5,
04,
00,
FC,
FF,
F5,
08,
08,
FE,
F0,
F9,
01,
07,
F9,
04,
01,
07,
06,
00,
04,
FC,
E9,
FA,
0A,
06,
F9,
F8,
E3,
0E,
F1,
03,
0D,
02,
F7,
02,
FE,
03,
04,
04,
0A,
E9,
FB,
01,
04,
04,
FE,
06,
EC,
02,
05,
FD,
FE,
04,
07,
FF,
F7,
ED,
01,
0C,
E4,
02,
F2,
04,
FE,
FC,
00,
FB,
F7,
F3,
FE,
FD,
FD,
FD,
0C,
01,
07,
FC,
02,
FD,
F6,
FC,
F6,
FA,
09,
FC,
04,
F6,
FA,
FF,
FE,
FB,
FD,
F0,
FA,
06,
08,
E9,
04,
09,
07,
FD,
0F,
0B,
EC,
07,
EE,
FB,
F9,
FF,
FF,
01,
0E,
05,
07,
0C,
FA,
10,
FF,
FA,
FA,
08,
FB,
01,
03,
FD,
02,
09,
FD,
0C,
FD,
FF,
01,
00,
FA,
12,
08,
04,
EE,
F6,
03,
F5,
FD,
FD,
03,
FB,
0F,
FC,
01,
04,
DC,
00,
FD,
0B,
00,
08,
F8,
14,
F2,
0A,
17,
03,
F5,
F7,
F5,
02,
FD,
01,
FC,
FF,
FA,
FD,
09,
FD,
F4,
FD,
F8,
00,
FF,
0E,
F5,
09,
00,
FD,
FA,
F9,
11,
0D,
DF,
0D,
02,
0F,
07,
08,
03,
F8,
02,
F8,
04,
FD,
F7,
FF,
F9,
FE,
0E,
F9,
06,
F8,
F4,
06,
09,
FA,
F9,
FB,
FD,
00,
02,
03,
00,
FA,
04,
F5,
06,
FF,
F8,
F5,
0C,
04,
01,
FF,
15,
02,
EA,
FB,
F0,
FF,
EC,
F8,
FD,
FE,
01,
05,
03,
FB,
00,
0C,
05,
F6,
F7,
0E,
06,
00,
03,
02,
FF,
02,
09,
02,
04,
FD,
01,
02,
F7,
14,
FB,
FA,
ED,
FB,
11,
FC,
F9,
FF,
FC,
FE,
0B,
01,
04,
FA,
E1,
FB,
FE,
06,
00,
04,
F7,
07,
06,
FF,
0F,
FC,
F1,
FE,
F4,
FB,
F3,
FB,
FC,
04,
0B,
FB,
03,
FD,
FE,
F8,
FF,
FC,
15,
F9,
FC,
FB,
0A,
00,
FE,
F7,
03,
FB,
D1,
06,
EF,
FD,
11,
09,
FF,
FC,
0C,
FC,
F0,
FF,
FC,
FC,
EB,
0A,
FC,
E8,
05,
FE,
F6,
01,
0E,
00,
FD,
F4,
E9,
00,
0B,
04,
FE,
F7,
FF,
FC,
09,
FD,
EC,
FC,
10,
FD,
FF,
00,
0D,
04,
D6,
DC,
FE,
FD,
01,
FE,
00,
04,
FA,
FD,
03,
F3,
FD,
06,
0B,
05,
07,
FF,
06,
04,
F9,
FC,
FF,
03,
02,
FA,
F9,
03,
01,
02,
0C,
F6,
F4,
0B,
F4,
EC,
0A,
FA,
0A,
F9,
FE,
F6,
F4,
FC,
01,
E7,
E0,
FE,
0C,
FF,
15,
09,
FC,
00,
F7,
06,
0D,
EF,
F1,
F5,
06,
01,
01,
02,
03,
00,
11,
FA,
EB,
FB,
F4,
EE,
02,
01,
0C,
FD,
FC,
FD,
10,
FE,
16,
F4,
F6,
F7,
D2,
08,
01,
00,
11,
05,
FE,
02,
10,
FE,
06,
0D,
FE,
02,
F1,
F3,
F8,
E7,
04,
F0,
FB,
0A,
04,
06,
F3,
FC,
F7,
10,
02,
08,
00,
FA,
00,
0B,
F1,
0C,
E7,
FD,
10,
12,
06,
02,
1A,
02,
D8,
E8,
0E,
E3,
F9,
ED,
0B,
F2,
FF,
FC,
FE,
00,
10,
16,
05,
10,
F6,
F6,
F5,
F7,
FF,
FB,
02,
02,
09,
FA,
EE,
FC,
FE,
FF,
08,
EA,
F3,
02,
FA,
E8,
F2,
09,
0C,
01,
FD,
F3,
FE,
FF,
10,
07,
FA,
0B,
FB,
FC,
00,
F9,
0F,
06,
FE,
F9,
F0,
F3,
E2,
00,
01,
FF,
D7,
02,
E5,
0A,
F5,
F9,
D8,
00,
ED,
FE,
05,
00,
FD,
FE,
05,
F9,
14,
FE,
0C,
F5,
F6,
FB,
F9,
E8,
FF,
F9,
10,
0A,
04,
08,
EC,
F6,
02,
05,
F7,
03,
D7,
FC,
F9,
FF,
F8,
D8,
FC,
0D,
1A,
09,
E8,
F8,
0D,
10,
F7,
01,
FB,
FC,
01,
03,
FD,
17,
ED,
00,
11,
17,
07,
04,
19,
F5,
03,
EE,
02,
FB,
01,
FC,
11,
FA,
F9,
F8,
FB,
0C,
FC,
15,
F0,
0E,
FA,
F4,
EA,
07,
ED,
00,
FF,
05,
07,
FE,
F2,
04,
03,
FE,
F7,
F4,
09,
06,
FA,
D8,
CD,
0C,
18,
F1,
FD,
F2,
EF,
00,
0D,
06,
0C,
12,
02,
06,
F6,
00,
0F,
03,
F1,
F4,
FB,
F8,
E9,
04,
FC,
04,
E8,
FE,
D9,
03,
F0,
F4,
F2,
02,
E9,
03,
07,
FE,
06,
06,
00,
E8,
17,
02,
11,
F9,
F6,
0A,
F5,
F2,
03,
FF,
F4,
FA,
04,
F1,
F8,
FF,
15,
14,
F9,
FF,
DE,
F3,
FA,
F9,
01,
E0,
FA,
14,
0D,
10,
ED,
03,
00,
1B,
F0,
08,
01,
05,
FC,
05,
F4,
0E,
E5,
11,
07,
0E,
0E,
04,
23,
EF,
F9,
07,
EB,
E8,
07,
F4,
08,
FC,
F5,
FD,
01,
0A,
0E,
18,
F1,
19,
0E,
FC,
F1,
15,
EB,
00,
03,
05,
0D,
FF,
F4,
03,
FC,
FD,
F0,
E7,
0E,
E9,
17,
CE,
E0,
03,
EB,
F1,
FD,
1F,
F2,
01,
F8,
1A,
08,
09,
FC,
09,
D3,
0A,
16,
04,
0B,
02,
F4,
FD,
E3,
1A,
F7,
05,
01,
05,
DE,
0C,
03,
F3,
EC,
06,
0A,
0B,
10,
FD,
02,
0B,
02,
FB,
10,
FF,
10,
FF,
F7,
16,
F3,
E4,
0F,
07,
F3,
E7,
FD,
F5,
03,
06,
0D,
13,
EC,
02,
E8,
F9,
06,
09,
14,
E9,
F6,
18,
14,
1C,
F2,
0D,
F1,
16,
F9,
13,
FE,
FB,
FF,
FD,
02,
08,
DF,
0C,
FB,
FF,
0C,
FE,
18,
F4,
F6,
E6,
15,
FE,
FC,
F2,
E6,
07,
F0,
0E,
FC,
EE,
FA,
0A,
04,
09,
00,
09,
EA,
F0,
EC,
FE,
00,
FF,
15,
0A,
F9,
FF,
FF,
03,
10,
FB,
14,
F4,
14,
D9,
FC,
E5,
F7,
F2,
04,
FF,
E8,
FE,
09,
15,
0D,
0C,
EE,
0C,
08,
02,
32,
FC,
22,
07,
08,
EA,
FA,
1D,
00,
02,
FC,
01,
EB,
17,
F7,
F3,
00,
05,
EB,
03,
1C,
00,
04,
02,
01,
1B,
F6,
F8,
06,
05,
FD,
15,
22,
EB,
12,
F5,
F2,
0A,
FC,
02,
03,
FD,
2B,
00,
10,
02,
F4,
08,
07,
0C,
06,
F0,
F1,
02,
06,
11,
F7,
E8,
F3,
E7,
FE,
12,
02,
FF,
FF,
FD,
FF,
0C,
F1,
1E,
FB,
0A,
02,
FB,
0C,
F5,
00,
C6,
22,
F9,
FD,
DA,
EE,
07,
0E,
0D,
09,
EA,
F6,
F1,
26,
FD,
F3,
FE,
E6,
E2,
F9,
FE,
FE,
F4,
F9,
05,
ED,
02,
03,
02,
11,
E6,
16,
F1,
15,
E1,
F3,
C4,
F2,
CB,
02,
F8,
F0,
FD,
07,
05,
12,
0F,
E7,
0A,
F4,
16,
F4,
FB,
29,
F1,
E8,
F4,
F4,
19,
F7,
1A,
E9,
FE,
EE,
01,
04,
0F,
F4,
00,
DC,
EE,
03,
02,
FA,
EB,
0B,
15,
F0,
00,
00,
F9,
03,
01,
0C,
0A,
13,
14,
0C,
F9,
01,
F5,
FD,
FA,
21,
1C,
0B,
FC,
FB,
07,
06,
1A,
F1,
E3,
F2,
FF,
FC,
01,
0D,
F2,
FD,
06,
E3,
10,
FD,
06,
01,
FA,
EB,
0D,
EB,
04,
05,
F4,
F9,
01,
FE,
EB,
0A,
EC,
0F,
0F,
11,
D7,
E9,
05,
F5,
E7,
0D,
04,
F1,
F8,
20,
0D,
17,
00,
03,
FD,
0B,
FE,
FC,
0A,
F5,
04,
DE,
00,
01,
04,
FC,
EB,
11,
07,
06,
EE,
04,
DC,
F2,
EA,
FE,
FB,
D4,
FE,
FD,
07,
13,
FC,
04,
F6,
F4,
20,
0F,
EB,
01,
0C,
ED,
F8,
04,
12,
F5,
0E,
F5,
03,
F1,
02,
E1,
26,
FB,
04,
F6,
06,
13,
04,
EB,
FD,
07,
FD,
ED,
FD,
DF,
02,
0E,
E0,
04,
F5,
14,
18,
FF,
05,
03,
F0,
20,
F7,
0B,
0E,
27,
FB,
FE,
12,
0C,
1A,
FB,
EE,
05,
0D,
F4,
F2,
0C,
E8,
E0,
04,
F3,
EF,
FE,
F9,
04,
14,
F5,
1C,
F9,
1C,
00,
F8,
06,
03,
FD,
07,
01,
12,
FA,
FF,
0A,
00,
04,
09,
F5,
FD,
0A,
04,
FA,
F4,
2F,
F8,
11,
06,
0B,
FD,
01,
FC,
04,
04,
02,
0B,
F5,
03,
00,
01,
FB,
FA,
FE,
0C,
00,
01,
0F,
ED,
F6,
05,
01,
F8,
F6,
FF,
F8,
EF,
18,
F9,
06,
F4,
05,
07,
EE,
FA,
08,
FE,
FF,
FE,
1F,
0F,
FD,
02,
03,
03,
F0,
0F,
E8,
16,
F5,
07,
EC,
03,
08,
FD,
00,
FD,
11,
F4,
EB,
FB,
06,
10,
FE,
EB,
02,
FA,
0B,
04,
FF,
1C,
03,
02,
10,
FB,
FF,
F4,
18,
00,
F9,
09,
11,
0C,
0A,
EE,
FD,
FE,
0F,
03,
0F,
F7,
06,
EC,
03,
F1,
FF,
F6,
FD,
07,
F7,
10,
0E,
FB,
00,
FF,
FB,
02,
EC,
12,
06,
FB,
EC,
0D,
10,
03,
08,
1A,
02,
10,
0F,
08,
F7,
00,
2E,
19,
18,
F5,
18,
04,
FC,
00,
FC,
FD,
FE,
0B,
F7,
02,
00,
04,
F7,
EF,
14,
13,
EF,
05,
0A,
D9,
F9,
01,
FC,
FA,
09,
01,
0E,
DF,
11,
06,
0F,
F3,
10,
0A,
FB,
F6,
05,
F3,
F7,
01,
2B,
0F,
F8,
FE,
FE,
01,
F1,
F0,
FC,
13,
03,
FD,
EC,
07,
F7,
FC,
10,
ED,
1A,
D3,
F7,
03,
0D,
09,
F7,
E5,
FA,
F5,
08,
10,
07,
2F,
00,
0D,
15,
FE,
14,
F4,
0F,
03,
FE,
06,
01,
14,
0F,
F1,
03,
07,
1C,
F8,
09,
F4,
03,
E3,
F5,
F6,
FE,
FB,
FF,
FE,
FC,
0D,
08,
E5,
00,
EA,
09,
FD,
0B,
0F,
11,
FA,
00,
13,
05,
04,
F9,
1C,
FD,
0B,
07,
12,
F4,
D4,
12,
19,
21,
11,
F7,
00,
07,
FF,
FC,
02,
FE,
FF,
EA,
02,
01,
FD,
14,
F5,
EB,
11,
FB,
3A,
0B,
D7,
DF,
F8,
00,
05,
15,
FF,
10,
F0,
23,
F9,
31,
E5,
10,
2E,
F6,
06,
D5,
00,
F9,
FA,
17,
14,
FA,
E9,
0B,
FF,
12,
09,
03,
38,
07,
00,
E3,
19,
FC,
FF,
09,
F7,
00,
FC,
F6,
FC,
F0,
FA,
0C,
F2,
1A,
FE,
F8,
F5,
EA,
0A,
00,
0E,
1C,
FA,
DA,
DE,
22,
01,
03,
00,
F4,
F4,
05,
20,
08,
0F,
F7,
FB,
00,
F6,
F9,
C5,
16,
13,
04,
FB,
FF,
02,
F6,
13,
16,
E9,
F8,
EE,
0B,
00,
04,
FF,
0D,
FB,
F4,
0A,
08,
04,
FE,
07,
FC,
03,
FA,
0D,
15,
E0,
11,
01,
16,
05,
15,
08,
02,
FF,
FF,
DA,
FF,
04,
06,
FF,
00,
FF,
2E,
FA,
DA,
0E,
1E,
35,
06,
F2,
02,
FB,
04,
FB,
EE,
03,
07,
03,
06,
00,
22,
FD,
01,
13,
FC,
0B,
F6,
10,
16,
01,
02,
F7,
F1,
DE,
09,
04,
0B,
0F,
07,
1F,
EF,
06,
E1,
06,
FE,
FD,
00,
02,
01,
19,
FA,
FD,
F4,
04,
01,
07,
05,
F8,
05,
FF,
07,
F4,
FC,
FF,
10,
FC,
F5,
F4,
FB,
FE,
FF,
F6,
F8,
F6,
FF,
EA,
FE,
F7,
02,
F2,
EC,
E8,
E8,
DA,
13,
FC,
01,
F2,
FF,
F9,
FC,
32,
01,
00,
EE,
0C,
09,
FD,
0A,
ED,
05,
F2,
ED,
FF,
0D,
02,
0E,
06,
F0,
F1,
01,
06,
1E,
F7,
13,
03,
04,
FF,
05,
FC,
02,
FD,
02,
FB,
F5,
F8,
11,
FE,
03,
02,
06,
EB,
EC,
11,
19,
0E,
11,
EE,
F7,
FF,
02,
13,
FD,
FD,
FF,
F6,
0D,
F3,
F3,
04,
FE,
FC,
14,
E9,
22,
06,
F2,
F7,
15,
0B,
E7,
FA,
F5,
FB,
F0,
FA,
FA,
FC,
EF,
00,
0A,
FD,
17,
04,
04,
F9,
FB,
0A,
F3,
FD,
EB,
EE,
F7,
01,
10,
FB,
0D,
08,
07,
00,
04,
FB,
FD,
FA,
24,
FE,
F8,
FC,
FB,
07,
FA,
0B,
04,
EB,
03,
07,
F5,
FD,
00,
DF,
FB,
FA,
F2,
F2,
03,
00,
FD,
13,
FE,
2F,
FE,
21,
EE,
13,
10,
FE,
F9,
E9,
EC,
CC,
F9,
0A,
FE,
07,
05,
F7,
0F,
01,
FD,
F1,
0B,
E8,
0A,
00,
0A,
F5,
E3,
FC,
FF,
FC,
FC,
E5,
F0,
FB,
05,
FC,
02,
00,
EE,
E2,
F8,
13,
13,
F6,
FE,
FC,
12,
BD,
FD,
02,
01,
FC,
F1,
08,
11,
FF,
03,
17,
E8,
F8,
05,
E6,
09,
00,
E5,
F5,
0D,
13,
F4,
01,
F9,
01,
EE,
EA,
F6,
F8,
02,
0E,
EF,
F5,
15,
02,
F5,
E9,
FB,
25,
09,
FA,
FB,
EE,
F7,
03,
08,
F9,
04,
EF,
DD,
27,
FC,
08,
F7,
FC,
00,
07,
F6,
FE,
FD,
0C,
F7,
F5,
05,
DA,
EE,
16,
04,
01,
F3,
F9,
EA,
0F,
FB,
FE,
03,
FF,
FF,
E9,
F9,
00,
F8,
11,
FA,
0A,
11,
FC,
11,
04,
EA,
DC,
03,
19,
0A,
04,
04,
FB,
00,
15,
0C,
F6,
02,
01,
F9,
F0,
0B,
E6,
EB,
F1,
E3,
FD,
04,
F1,
F8,
FA,
13,
FC,
01,
02,
01,
DF,
12,
04,
11,
FA,
0E,
09,
03,
E6,
03,
E7,
06,
01,
F4,
07,
FD,
F8,
F6,
03,
FA,
EE,
0F,
E8,
05,
01,
EE,
FA,
FA,
0F,
01,
03,
F7,
0A,
E2,
FF,
0E,
F9,
1A,
09,
06,
FF,
07,
FC,
F0,
F1,
FD,
0D,
06,
F9,
07,
F7,
E5,
08,
F7,
F7,
FC,
FF,
F1,
FA,
FE,
02,
01,
04,
07,
00,
EE,
FF,
EC,
F7,
FA,
FE,
FD,
E4,
FB,
F1,
16,
09,
F5,
FA,
F2,
F4,
FF,
07,
FC,
FF,
00,
05,
06,
16,
D6,
06,
FC,
0F,
03,
04,
06,
03,
E7,
F0,
09,
FA,
05,
05,
02,
F7,
FE,
10,
01,
FD,
E9,
00,
FD,
FF,
09,
EB,
EB,
F8,
E7,
FB,
00,
04,
02,
F5,
02,
FC,
FC,
FF,
11,
D6,
04,
F3,
0A,
FD,
FD,
00,
0A,
04,
03,
04,
F3,
FE,
FF,
EA,
0D,
F5,
FE,
08,
FB,
10,
05,
E4,
FD,
00,
DE,
FB,
FF,
04,
01,
03,
FF,
03,
E8,
0B,
03,
02,
04,
00,
04,
02,
03,
04,
F4,
F5,
FF,
F3,
05,
04,
01,
00,
EB,
0E,
02,
F9,
04,
F4,
EE,
F3,
04,
FB,
02,
FD,
FD,
08,
E0,
02,
EB,
F9,
F2,
FF,
00,
DC,
FD,
08,
0F,
09,
F4,
04,
09,
0D,
F3,
FD,
FC,
00,
FE,
FA,
FA,
F1,
EA,
09,
15,
13,
0A,
02,
04,
06,
BE,
FB,
F9,
F9,
FA,
ED,
0A,
F8,
F9,
08,
03,
02,
0C,
0F,
E5,
FD,
EA,
01,
E9,
F9,
ED,
FD,
FD,
07,
FD,
FF,
FA,
FD,
01,
FE,
E1,
FE,
FB,
F8,
F8,
DF,
FE,
13,
FC,
08,
00,
FC,
F6,
03,
F6,
F5,
10,
0B,
02,
0E,
D6,
10,
0F,
E1,
ED,
FB,
F7,
F9,
07,
ED,
0D,
05,
02,
03,
DA,
FB,
FC,
16,
ED,
05,
FB,
FC,
0D,
FE,
E4,
02,
02,
01,
1A,
05,
F7,
02,
FC,
07,
F4,
F7,
04,
FD,
0C,
FD,
FD,
EF,
F7,
F8,
FE,
07,
F8,
FD,
E8,
F3,
F7,
FE,
FF,
C7,
05,
FD,
01,
16,
F3,
FE,
03,
15,
07,
08,
FC,
01,
FF,
FC,
E3,
1C,
EA,
04,
11,
FF,
0D,
FF,
EE,
13,
D7,
E9,
07,
03,
EA,
E7,
01,
F8,
FC,
FF,
05,
F2,
03,
02,
01,
F3,
ED,
0B,
F2,
0B,
F9,
FB,
03,
14,
FE,
03,
03,
FF,
FD,
FF,
F5,
F6,
FE,
F6,
02,
EE,
0D,
FE,
1C,
F8,
FF,
0B,
02,
03,
1C,
FB,
E9,
19,
FF,
0D,
01,
08,
04,
EE,
EB,
08,
02,
F1,
09,
D8,
06,
05,
EE,
00,
D9,
FB,
02,
02,
02,
07,
E9,
EA,
0E,
03,
F2,
02,
FB,
08,
02,
02,
FF,
07,
DF,
E5,
F9,
F4,
F1,
09,
05,
01,
FE,
FD,
F6,
FA,
FC,
00,
09,
04,
D8,
E5,
F1,
FF,
FC,
D1,
F8,
07,
06,
12,
03,
E9,
08,
0D,
0F,
0D,
FC,
F9,
05,
0E,
E1,
F3,
FA,
07,
00,
FF,
0C,
04,
ED,
04,
DF,
ED,
FE,
01,
E7,
FB,
0B,
F9,
00,
FF,
FE,
F3,
FD,
FC,
0F,
F7,
EB,
12,
FA,
02,
F4,
FD,
FD,
02,
0F,
EA,
16,
04,
02,
00,
10,
FB,
F9,
FC,
0B,
E9,
0F,
F9,
0B,
F6,
04,
0D,
FA,
FF,
0E,
E7,
EF,
04,
01,
03,
04,
09,
EF,
00,
FF,
0C,
F8,
F4,
FD,
E1,
07,
07,
02,
00,
BE,
00,
06,
FC,
0F,
04,
F9,
E4,
09,
01,
04,
FD,
FB,
0B,
FA,
03,
01,
0F,
F1,
F8,
E4,
0C,
F7,
0F,
FF,
F9,
03,
FE,
FA,
FB,
F5,
F6,
FB,
FD,
FC,
F2,
FD,
00,
00,
DE,
F1,
00,
01,
03,
04,
F4,
04,
0B,
F5,
09,
01,
FE,
FE,
09,
FA,
07,
F5,
F9,
08,
F1,
0C,
03,
0B,
0C,
F4,
08,
F5,
F4,
04,
05,
FF,
01,
04,
09,
00,
F4,
FA,
11,
06,
00,
F3,
05,
00,
FE,
0F,
FE,
FD,
03,
11,
FE,
09,
FC,
FE,
FB,
02,
0C,
F9,
06,
FD,
ED,
0B,
FB,
00,
03,
FE,
08,
FF,
01,
FA,
F6,
FA,
FF,
EB,
FF,
15,
FA,
00,
FA,
0F,
06,
FD,
FF,
FB,
F6,
05,
FD,
03,
FB,
EB,
04,
09,
01,
06,
FF,
0D,
ED,
06,
03,
12,
06,
F7,
FD,
FB,
00,
05,
F7,
EA,
07,
EC,
18,
F6,
FA,
0A,
FC,
FC,
FB,
18,
FE,
F6,
F5,
01,
01,
F5,
08,
0B,
0F,
06,
D1,
F7,
14,
0C,
FD,
02,
FD,
F6,
FE,
F7,
05,
03,
FD,
04,
FB,
FC,
0D,
F7,
F8,
E9,
F4,
08,
03,
01,
05,
F9,
0A,
FB,
FA,
10,
04,
05,
01,
07,
07,
07,
F1,
0A,
0A,
F4,
02,
04,
F7,
01,
FA,
FC,
00,
03,
04,
03,
FB,
F7,
03,
FE,
00,
F5,
05,
F4,
F8,
F8,
F8,
F7,
FC,
FE,
00,
FF,
02,
0C,
03,
F4,
06,
FC,
00,
EB,
00,
03,
01,
F9,
EA,
FC,
09,
03,
07,
FA,
FB,
04,
FA,
F8,
FF,
DB,
06,
09,
08,
04,
FD,
0D,
FB,
02,
01,
03,
FE,
FB,
F4,
FA,
01,
01,
F7,
EC,
FA,
02,
FC,
00,
FE,
03,
02,
FF,
0E,
06,
FA,
F6,
FE,
F3,
FD,
F3,
02,
1F,
04,
11,
EF,
F9,
10,
12,
F3,
FE,
EF,
F7,
FF,
FE,
F8,
FC,
FD,
01,
EE,
FE,
F7,
06,
FD,
E2,
F6,
0D,
FD,
F6,
FC,
F2,
05,
08,
FF,
F8,
09,
04,
F8,
0D,
FD,
07,
E7,
F4,
FB,
01,
00,
07,
EB,
F8,
03,
03,
FF,
00,
F8,
F4,
F1,
F6,
FF,
FF,
FC,
06,
0A,
FB,
F2,
FE,
FD,
01,
F4,
08,
03,
02,
0E,
06,
FD,
07,
FB,
FB,
FB,
F9,
F7,
08,
03,
ED,
FD,
EE,
0C,
0F,
01,
03,
07,
FD,
F9,
0A,
00,
F9,
F8,
05,
FC,
04,
01,
03,
09,
FB,
00,
FF,
04,
F9,
FB,
F1,
00,
FB,
F2,
05,
F9,
0A,
03,
EE,
0D,
04,
06,
FF,
09,
FB,
FD,
EE,
F7,
F9,
FD,
F1,
FA,
10,
0B,
06,
06,
F8,
04,
0A,
FF,
06,
F7,
03,
F8,
02,
F6,
02,
02,
00,
FF,
04,
FA,
06,
08,
09,
07,
0F,
03,
01,
F6,
02,
03,
F9,
FB,
FA,
05,
03,
F6,
0E,
F9,
03,
FC,
F2,
02,
FA,
FF,
09,
04,
F8,
02,
00,
01,
FF,
F1,
FE,
F7,
06,
FC,
02,
03,
F9,
FB,
FB,
FC,
0D,
FF,
00,
01,
06,
00,
FD,
F3,
01,
03,
FD,
12,
F4,
FB,
F5,
06,
EE,
FE,
F9,
1A,
03,
10,
0D,
F4,
06,
0F,
FA,
FE,
09,
FF,
00,
DA,
03,
FD,
05,
05,
0A,
0A,
F0,
03,
1E,
04,
F3,
10,
FC,
FC,
FB,
F3,
05,
14,
01,
FF,
06,
13,
FB,
01,
04,
FC,
06,
F7,
FD,
F9,
04,
FE,
FC,
06,
00,
01,
FF,
EE,
00,
05,
03,
05,
0A,
FF,
01,
00,
FC,
00,
01,
FF,
FF,
FE,
FD,
FF,
FA,
E6,
F8,
0A,
04,
FC,
13,
0E,
07,
07,
06,
06,
F7,
FB,
FF,
FA,
09,
EE,
FF,
F2,
FF,
02,
07,
FF,
09,
FF,
F8,
08,
03,
02,
FE,
13,
FE,
EA,
FD,
02,
02,
01,
FE,
E7,
0D,
05,
01,
05,
0A,
03,
01,
FE,
FD,
17,
00,
FC,
FE,
14,
06,
F6,
F9,
09,
FC,
FE,
F8,
0B,
FA,
15,
F1,
00,
16,
03,
FF,
F6,
07,
FF,
F9,
F0,
06,
09,
09,
00,
FA,
FE,
EC,
02,
1E,
00,
FC,
0B,
FF,
FB,
05,
FA,
F7,
01,
FB,
01,
12,
0D,
FB,
10,
03,
FC,
02,
F0,
04,
F4,
0B,
FA,
E6,
FA,
FB,
F5,
F8,
FC,
FF,
03,
06,
09,
0E,
EA,
FD,
FF,
06,
06,
03,
FA,
FF,
FC,
FF,
F7,
F9,
DE,
F8,
05,
0A,
FF,
02,
10,
03,
0C,
05,
08,
0C,
FC,
FC,
04,
04,
F4,
04,
EF,
01,
01,
02,
FF,
05,
F1,
FD,
0C,
F9,
FC,
04,
14,
F3,
F2,
08,
FC,
04,
03,
FE,
E1,
05,
07,
FE,
08,
0E,
FA,
0B,
04,
03,
21,
F7,
02,
FE,
03,
FC,
06,
FE,
0B,
02,
FB,
F4,
0A,
F8,
12,
F1,
F8,
0E,
0C,
FA,
F6,
14,
03,
FB,
FF,
FF,
01,
11,
02,
FD,
01,
E7,
03,
19,
07,
04,
0B,
F2,
FE,
FD,
EC,
DF,
F8,
FE,
FC,
01,
07,
02,
05,
01,
FA,
07,
F2,
00,
04,
00,
01,
DF,
00,
0F,
01,
F7,
F0,
FD,
FF,
F4,
0D,
FE,
DB,
08,
FE,
09,
04,
03,
FB,
03,
F7,
04,
F8,
FA,
F5,
FB,
0D,
07,
03,
08,
FA,
10,
11,
00,
0B,
FE,
FB,
03,
0B,
08,
F6,
05,
F7,
F6,
F9,
00,
FF,
07,
F3,
01,
0A,
01,
FF,
03,
F2,
FA,
FF,
07,
FE,
FE,
01,
FB,
F6,
0A,
06,
FF,
0B,
09,
01,
0A,
FE,
00,
06,
02,
FD,
07,
0D,
F9,
00,
FB,
0A,
00,
F3,
FC,
18,
F7,
12,
03,
FD,
07,
F1,
00,
F7,
07,
04,
03,
E0,
FB,
F9,
0A,
FF,
08,
03,
E9,
FE,
14,
04,
FA,
0C,
F8,
02,
00,
F1,
0B,
05,
F9,
08,
02,
0C,
F3,
06,
FE,
FA,
0F,
F9,
03,
F9,
0B,
FB,
F5,
0A,
05,
F0,
00,
F9,
F9,
10,
06,
04,
14,
EC,
00,
FB,
06,
FB,
01,
FE,
FD,
02,
05,
F4,
00,
EE,
04,
FB,
05,
FD,
09,
01,
FD,
FC,
FC,
FC,
00,
02,
06,
FC,
17,
F0,
05,
E1,
F6,
00,
02,
01,
0A,
F6,
06,
05,
04,
FB,
03,
F3,
05,
FE,
FB,
02,
FD,
01,
00,
FD,
04,
FC,
F3,
FE,
03,
F8,
04,
F6,
04,
FB,
0B,
FF,
04,
F4,
F3,
F8,
06,
02,
FF,
F9,
EF,
09,
F7,
13,
01,
09,
FC,
00,
FA,
04,
08,
01,
07,
F1,
09,
FD,
FF,
02,
F4,
F9,
F3,
03,
0F,
09,
F7,
04,
FB,
FA,
00,
00,
F0,
00,
02,
01,
01,
05,
F9,
0C,
FD,
FF,
FD,
FB,
F5,
F7,
01,
FD,
05,
F7,
0F,
F3,
04,
03,
F9,
02,
0C,
FE,
0A,
F0,
FB,
05,
03,
03,
02,
FC,
03,
F3,
00,
F9,
04,
F0,
F9,
F2,
06,
01,
01,
FA,
F3,
09,
FC,
04,
FB,
09,
03,
00,
10,
FB,
02,
F0,
F9,
06,
FD,
09,
F8,
F2,
00,
F7,
F7,
FF,
FD,
05,
03,
01,
F7,
FE,
FC,
FF,
06,
F7,
FC,
02,
F2,
FA,
F3,
02,
FF,
07,
FD,
02,
0F,
FE,
05,
02,
E0,
11,
FC,
06,
02,
F9,
FB,
00,
F3,
03,
F0,
00,
E9,
F9,
F9,
F4,
FF,
00,
F0,
FE,
02,
FF,
F8,
F9,
05,
FB,
FF,
FE,
F8,
0B,
02,
01,
FF,
00,
02,
FC,
F9,
0F,
09,
F9,
04,
00,
FE,
01,
FE,
F8,
F9,
FF,
F7,
00,
EB,
01,
E9,
F8,
11,
EB,
04,
F1,
F7,
0A,
12,
F2,
05,
F9,
03,
FD,
08,
F7,
FF,
05,
FF,
F8,
FF,
05,
FE,
E9,
04,
E5,
07,
FC,
07,
07,
FA,
0B,
E8,
06,
F1,
07,
08,
07,
11,
01,
FF,
F1,
03,
0F,
FD,
0B,
F7,
FC,
05,
F5,
0F,
00,
00,
09,
00,
02,
F5,
FB,
FE,
00,
F0,
09,
EF,
FC,
F2,
F8,
FC,
FF,
FB,
06,
FB,
11,
11,
FE,
08,
06,
EB,
0E,
E3,
06,
FF,
F9,
06,
FE,
FF,
FA,
F5,
FE,
F0,
FB,
FC,
F9,
FA,
01,
F9,
07,
0B,
FB,
09,
FD,
FB,
FD,
05,
00,
F8,
0E,
FF,
FD,
F9,
FD,
F5,
02,
F0,
FC,
EF,
FF,
F5,
06,
02,
03,
FB,
F6,
0C,
FD,
EF,
F7,
F7,
00,
E4,
0B,
FE,
F7,
0A,
EF,
F8,
05,
12,
EB,
FF,
F8,
EE,
F4,
01,
FB,
FE,
03,
02,
06,
01,
07,
FD,
F8,
01,
F9,
04,
FE,
FE,
06,
E6,
EB,
F4,
F0,
05,
13,
F9,
F4,
03,
F0,
04,
F1,
FF,
02,
FA,
0D,
F2,
03,
FB,
03,
0F,
FB,
04,
FD,
02,
F4,
FF,
FF,
01,
01,
08,
F9,
FE,
0F,
08,
E4,
11,
FE,
04,
F7,
FE,
0A,
F1,
02,
FE,
EF,
E9,
02,
F8,
FE,
0B,
02,
F7,
F8,
05,
02,
FE,
E8,
05,
00,
02,
07,
FC,
FF,
F9,
02,
01,
EF,
14,
FD,
F9,
F4,
08,
04,
FC,
05,
03,
02,
00,
FB,
FD,
03,
00,
FF,
E1,
11,
01,
01,
F6,
03,
03,
F4,
FE,
FA,
FF,
03,
0A,
02,
D7,
FC,
F7,
06,
07,
E2,
F6,
0F,
01,
FD,
04,
FD,
F2,
04,
02,
02,
04,
00,
00,
07,
F0,
14,
FD,
F9,
09,
FD,
06,
00,
05,
05,
F4,
DE,
00,
DF,
FB,
F6,
FF,
F8,
F8,
F8,
FF,
EE,
04,
04,
08,
07,
05,
03,
00,
0A,
DF,
03,
01,
01,
02,
03,
09,
04,
FE,
00,
05,
FA,
FE,
0D,
F7,
F3,
0E,
0E,
07,
FB,
FD,
0E,
06,
FB,
07,
F7,
F3,
0E,
02,
0B,
00,
F5,
FE,
F7,
F4,
03,
FE,
F1,
FE,
F7,
06,
FE,
EF,
01,
E3,
00,
F7,
EF,
FC,
FD,
F6,
EF,
08,
FE,
00,
07,
FB,
03,
F7,
01,
13,
08,
01,
EA,
08,
E6,
F1,
FF,
08,
13,
03,
FD,
0E,
F7,
FD,
03,
06,
00,
D6,
F8,
01,
03,
FB,
D9,
F3,
10,
FB,
0B,
05,
F3,
05,
04,
03,
04,
00,
F9,
FD,
01,
E9,
07,
FA,
FD,
FE,
0F,
04,
FE,
02,
0B,
EA,
DC,
FA,
E1,
03,
F9,
06,
F4,
01,
F9,
FD,
F9,
02,
17,
EE,
FE,
F5,
0A,
EB,
04,
EE,
FF,
FD,
FF,
09,
05,
01,
FC,
04,
00,
E8,
05,
03,
F9,
EF,
DE,
04,
11,
19,
00,
FC,
05,
FD,
00,
0C,
0E,
10,
05,
FD,
08,
E6,
F7,
0A,
04,
F2,
EE,
02,
E7,
EE,
FF,
FD,
03,
F0,
FF,
D9,
10,
EE,
F9,
F1,
FD,
F1,
F0,
FB,
01,
09,
15,
09,
01,
16,
FF,
06,
08,
02,
0A,
FD,
DD,
00,
02,
0E,
14,
00,
FA,
F5,
F5,
04,
FB,
04,
FC,
D6,
08,
FA,
06,
FD,
D5,
00,
08,
FE,
0F,
F9,
E8,
06,
18,
0C,
0F,
FE,
04,
03,
00,
E2,
08,
FF,
0B,
F7,
12,
0A,
FB,
06,
0B,
F1,
01,
F5,
F0,
03,
F9,
0D,
EE,
0B,
05,
FF,
0A,
0B,
18,
E6,
0E,
FD,
FF,
F9,
04,
E7,
FF,
FD,
F4,
0D,
FD,
04,
04,
FD,
00,
F3,
05,
FD,
ED,
05,
DB,
F5,
15,
0E,
06,
02,
00,
F1,
FE,
FA,
11,
10,
00,
0C,
06,
E0,
02,
0E,
FF,
FA,
F2,
F9,
FF,
08,
0A,
F4,
03,
05,
01,
CF,
10,
F6,
00,
F7,
04,
F7,
03,
0C,
00,
FD,
0D,
04,
FA,
18,
FE,
0B,
05,
F3,
0F,
FB,
F5,
10,
0C,
FC,
F2,
04,
F0,
E9,
F4,
03,
02,
ED,
01,
E4,
02,
F7,
04,
00,
D6,
00,
0E,
15,
18,
F3,
FF,
FF,
09,
06,
F9,
03,
02,
FF,
F6,
FF,
10,
E7,
09,
06,
0F,
09,
FB,
1E,
0D,
E7,
F8,
E9,
EA,
02,
F8,
00,
08,
FE,
18,
07,
07,
FC,
1D,
FF,
0F,
02,
FD,
F0,
FB,
E3,
03,
03,
01,
06,
FB,
07,
FD,
FB,
00,
FF,
F2,
0F,
F3,
12,
D4,
11,
F0,
F9,
07,
03,
EF,
FF,
03,
05,
FF,
0C,
FC,
F1,
0E,
FA,
00,
15,
FC,
15,
01,
F5,
F7,
FD,
0D,
EF,
05,
04,
02,
D9,
14,
FF,
F4,
FE,
03,
FA,
09,
21,
FF,
00,
0F,
02,
0C,
0E,
FD,
09,
06,
F2,
17,
07,
F3,
15,
06,
FA,
FC,
04,
FD,
FC,
FD,
0A,
0B,
E6,
01,
F4,
01,
F9,
1A,
07,
E5,
FC,
13,
27,
09,
DB,
F6,
FC,
F6,
0A,
F6,
FD,
FD,
00,
01,
08,
1B,
CE,
16,
F8,
25,
10,
FD,
18,
01,
FA,
B2,
F7,
06,
06,
F0,
0A,
01,
02,
FB,
0C,
F1,
09,
FE,
0F,
FA,
05,
04,
E0,
D4,
08,
02,
04,
D9,
02,
01,
04,
04,
FC,
FC,
07,
ED,
15,
EC,
0C,
EC,
18,
E1,
DC,
E7,
02,
F7,
E9,
03,
FF,
02,
01,
02,
EE,
07,
D9,
0F,
15,
FD,
2F,
00,
E8,
F0,
01,
16,
F7,
0B,
F4,
FE,
DF,
FC,
F6,
15,
00,
03,
F5,
06,
16,
02,
FF,
FA,
0B,
20,
F7,
FA,
04,
FD,
EF,
17,
0A,
F7,
13,
0D,
F7,
FC,
FF,
F7,
ED,
02,
31,
0E,
0E,
03,
02,
0E,
F5,
14,
FC,
E8,
FF,
01,
1B,
08,
FA,
E5,
EC,
F0,
E9,
FB,
FC,
06,
02,
F8,
EA,
2C,
E4,
0D,
FD,
02,
04,
01,
FC,
FC,
0C,
E2,
05,
10,
0D,
DB,
E7,
09,
02,
E0,
13,
FF,
FD,
EC,
22,
16,
16,
08,
0E,
F3,
0B,
01,
00,
F8,
FC,
FF,
D7,
00,
FF,
FD,
FD,
02,
11,
E7,
03,
F7,
0A,
E9,
00,
F5,
FC,
F7,
C9,
FC,
03,
12,
01,
FB,
FD,
F7,
F4,
1C,
FA,
F4,
10,
06,
00,
F9,
11,
11,
FB,
12,
F0,
04,
DA,
04,
DD,
1D,
02,
FF,
EF,
0A,
14,
FF,
F3,
E5,
08,
0D,
D9,
01,
E1,
07,
F7,
E1,
F1,
FC,
04,
0D,
07,
06,
02,
F8,
1A,
F9,
1C,
11,
22,
02,
FC,
15,
03,
1D,
07,
F2,
02,
10,
EE,
F5,
F6,
E2,
DD,
F1,
EE,
E8,
FF,
06,
FF,
12,
F2,
20,
F6,
06,
F8,
E9,
04,
FD,
12,
00,
06,
F8,
01,
FC,
FB,
FD,
FA,
07,
EA,
F7,
FF,
02,
0B,
E3,
1C,
FF,
04,
08,
28,
13,
08,
FD,
00,
F0,
04,
03,
F4,
FF,
FE,
04,
12,
01,
0B,
0C,
19,
10,
0A,
0A,
E7,
EF,
FF,
FD,
F7,
00,
F5,
F6,
06,
FD,
0A,
F3,
FE,
12,
ED,
F8,
0A,
00,
F5,
FA,
25,
F9,
FB,
F0,
FB,
00,
F1,
11,
D6,
28,
09,
03,
F4,
0C,
05,
FD,
F3,
FD,
FD,
FC,
EA,
FB,
FD,
12,
06,
F9,
0C,
F7,
0C,
FE,
FE,
0D,
FC,
03,
13,
F9,
F4,
EA,
21,
00,
FB,
12,
17,
00,
00,
F0,
FC,
08,
F3,
F8,
08,
EC,
13,
DE,
16,
F0,
FD,
F1,
FD,
13,
00,
1E,
18,
0C,
06,
01,
FB,
FF,
09,
00,
02,
07,
09,
0A,
F4,
FD,
0B,
19,
FD,
02,
FE,
07,
08,
DE,
1C,
00,
FF,
02,
FC,
04,
05,
FE,
03,
01,
06,
1B,
00,
00,
03,
FD,
09,
02,
06,
14,
04,
0F,
0C,
EE,
FD,
F4,
FD,
0C,
05,
FE,
01,
DC,
0B,
FD,
10,
EC,
FE,
FC,
F0,
00,
0A,
06,
FF,
FB,
2C,
03,
F9,
F8,
FF,
00,
F6,
10,
F9,
07,
12,
FE,
F3,
05,
09,
FB,
04,
FA,
0B,
FF,
FB,
00,
08,
0F,
F6,
F9,
1B,
F4,
FF,
ED,
F6,
0F,
FF,
17,
0E,
00,
F6,
EF,
11,
00,
FA,
FB,
FF,
FF,
F8,
F4,
07,
09,
04,
01,
FA,
EE,
F2,
DE,
10,
F6,
FE,
F6,
FD,
02,
FF,
17,
13,
E6,
04,
EA,
08,
FE,
1D,
1C,
1F,
02,
FA,
16,
18,
12,
F0,
21,
16,
04,
F4,
19,
F7,
E8,
0F,
15,
16,
07,
F4,
00,
00,
FE,
02,
09,
F2,
03,
EB,
02,
03,
FF,
1C,
FC,
FE,
0B,
F7,
2A,
F2,
C6,
DA,
F4,
01,
0C,
FF,
FF,
03,
E9,
12,
04,
17,
EB,
0E,
28,
F4,
06,
EC,
03,
01,
FA,
0E,
0A,
F6,
E6,
FF,
03,
EE,
FD,
FF,
1D,
FF,
04,
EF,
0D,
FD,
00,
01,
00,
FD,
FB,
F2,
FD,
F5,
0C,
20,
FF,
10,
F9,
FE,
02,
EC,
08,
FD,
0E,
1B,
01,
E9,
F1,
0B,
FC,
FA,
07,
FB,
FC,
1A,
05,
0D,
FF,
F5,
F4,
ED,
E9,
F6,
DA,
07,
FD,
FC,
FF,
FF,
00,
FB,
1C,
18,
EE,
FB,
E4,
FC,
04,
0F,
FF,
10,
ED,
E7,
09,
1A,
12,
00,
07,
EC,
EF,
F0,
12,
1E,
EA,
15,
03,
01,
0D,
01,
19,
08,
02,
01,
EE,
F8,
FB,
FD,
01,
04,
FD,
29,
08,
EB,
09,
25,
1D,
13,
F0,
F6,
FD,
FE,
14,
FD,
FC,
05,
FF,
F9,
07,
0A,
EF,
FB,
0C,
0D,
01,
0D,
12,
21,
01,
0F,
FC,
F0,
E7,
0B,
FD,
F5,
FB,
E3,
12,
FE,
FF,
E5,
05,
0F,
FC,
02,
EF,
01,
08,
EC,
FC,
EF,
15,
23,
0A,
F0,
F6,
01,
EF,
F8,
FE,
00,
0E,
0E,
02,
00,
EC,
FF,
FC,
02,
FD,
FF,
05,
1F,
F4,
0F,
FC,
01,
E7,
E7,
E2,
EC,
E3,
F7,
F5,
00,
01,
02,
10,
F9,
39,
0B,
FF,
F0,
00,
03,
FE,
F5,
FF,
03,
EA,
F9,
00,
19,
0A,
E8,
F7,
ED,
ED,
FD,
10,
15,
E6,
1C,
04,
16,
FF,
0A,
1C,
02,
00,
03,
FA,
F3,
00,
00,
02,
FE,
02,
09,
FE,
F8,
0D,
0B,
F8,
23,
F3,
FF,
E7,
02,
09,
EA,
04,
F0,
08,
0B,
00,
11,
FD,
F4,
0B,
0C,
EE,
0D,
FC,
F8,
F8,
16,
09,
EC,
FB,
FF,
01,
EC,
FB,
EC,
0A,
E8,
0C,
FF,
04,
12,
02,
FB,
FE,
FD,
14,
F2,
FA,
F2,
FD,
1A,
FE,
F6,
F4,
09,
F5,
F8,
04,
04,
10,
F9,
F7,
03,
01,
04,
00,
FA,
0C,
FC,
06,
10,
F3,
09,
16,
EC,
0A,
E9,
D5,
14,
04,
F7,
06,
00,
06,
FD,
09,
03,
28,
EF,
19,
F1,
13,
15,
00,
FE,
EE,
E1,
D6,
E3,
13,
04,
06,
05,
02,
17,
07,
05,
FC,
04,
09,
0B,
F7,
16,
EA,
F0,
04,
F8,
02,
FF,
E1,
F2,
0A,
03,
00,
02,
01,
E6,
F1,
09,
0A,
0C,
EA,
09,
EF,
02,
D0,
FD,
E6,
F4,
02,
EE,
10,
0D,
FF,
F8,
0D,
DC,
EB,
0D,
E1,
12,
0D,
E7,
FA,
F9,
0F,
0C,
05,
04,
00,
E3,
F7,
FF,
F7,
FE,
09,
F9,
02,
0A,
02,
F7,
02,
FE,
1F,
0E,
FF,
00,
F9,
02,
01,
E9,
F6,
08,
03,
F1,
1A,
02,
08,
FB,
FA,
14,
07,
00,
02,
01,
F9,
FE,
07,
FE,
F1,
FC,
0A,
10,
04,
FC,
EB,
F3,
0D,
00,
F6,
FD,
FD,
FC,
FD,
FF,
1E,
D9,
10,
FA,
0A,
07,
00,
12,
FB,
E0,
E1,
0A,
14,
11,
0D,
06,
FD,
02,
0C,
05,
F9,
0A,
FB,
C7,
EC,
08,
D6,
FE,
F1,
E1,
01,
FE,
03,
06,
EF,
07,
FE,
02,
FF,
01,
D5,
0D,
FC,
0F,
07,
F4,
1A,
1E,
08,
FF,
DD,
09,
01,
FF,
F6,
08,
F7,
02,
FA,
FB,
F7,
18,
D5,
07,
04,
DF,
F9,
09,
20,
05,
06,
FE,
07,
D8,
FB,
08,
03,
07,
00,
F8,
07,
05,
01,
F7,
EF,
F9,
01,
0B,
03,
FB,
FF,
F9,
0C,
EF,
EE,
00,
F2,
F2,
EE,
02,
07,
DC,
F9,
04,
FA,
EC,
00,
F0,
F1,
F8,
05,
05,
EF,
FD,
EE,
1A,
FD,
0F,
FD,
F6,
ED,
00,
03,
FB,
F9,
01,
FD,
03,
0E,
E8,
FF,
0F,
08,
03,
FE,
07,
0A,
E4,
E6,
F8,
FE,
05,
03,
F6,
08,
FB,
F9,
FF,
04,
FF,
03,
E5,
0C,
06,
FF,
F8,
FC,
F2,
02,
01,
0F,
04,
F7,
F6,
FC,
01,
01,
F9,
ED,
00,
E5,
09,
04,
FA,
0A,
05,
0B,
FF,
0D,
07,
FD,
FD,
E5,
03,
F7,
0E,
08,
E6,
09,
05,
E4,
F5,
FB,
F4,
F6,
0F,
F4,
FB,
0A,
FA,
FE,
E7,
FD,
FE,
07,
06,
FC,
0E,
09,
0B,
01,
F2,
FC,
FD,
F8,
FF,
03,
EA,
00,
02,
FC,
04,
F8,
FE,
FE,
F9,
FA,
01,
FB,
05,
F6,
F7,
08,
F0,
00,
E3,
EC,
FA,
10,
0F,
E6,
FF,
02,
F7,
07,
06,
F5,
03,
08,
09,
F6,
FF,
FE,
FD,
FD,
F7,
00,
01,
06,
06,
0E,
05,
01,
E3,
10,
E2,
F2,
03,
06,
FE,
FB,
FE,
FD,
01,
FB,
06,
00,
09,
11,
FA,
04,
ED,
0B,
FB,
FA,
F1,
FE,
FE,
FC,
08,
FE,
FE,
FF,
01,
FD,
FA,
F8,
FD,
F9,
F5,
F2,
00,
08,
07,
FB,
01,
16,
F6,
FF,
11,
FD,
0E,
04,
00,
06,
F6,
0C,
02,
DE,
E2,
08,
E9,
FE,
0C,
EF,
01,
08,
08,
FD,
D6,
F9,
FD,
04,
FA,
06,
FC,
F8,
11,
01,
EA,
09,
FC,
07,
0D,
00,
EF,
02,
05,
FD,
15,
DB,
00,
03,
03,
FC,
FF,
F4,
F0,
FE,
02,
FA,
F6,
02,
E1,
00,
FC,
02,
05,
EE,
FC,
FF,
FC,
0F,
04,
F8,
03,
06,
08,
0A,
FE,
FF,
00,
0C,
E3,
08,
00,
F1,
FC,
FF,
0C,
FC,
DA,
02,
E6,
FC,
10,
FF,
E8,
FB,
0B,
F6,
FE,
09,
FF,
FB,
FD,
F7,
F8,
FB,
ED,
02,
F4,
04,
FC,
FC,
04,
08,
00,
02,
18,
FF,
02,
FE,
01,
F3,
FF,
FB,
0E,
F3,
04,
09,
08,
F0,
04,
0C,
FC,
FE,
0B,
03,
F4,
0C,
00,
04,
FD,
0C,
F6,
E4,
E7,
0A,
E5,
F4,
F4,
E2,
FF,
02,
F5,
00,
CE,
04,
FA,
08,
0B,
01,
02,
F8,
FF,
00,
F3,
FB,
F9,
14,
01,
02,
FE,
04,
D7,
F8,
02,
F2,
EE,
FA,
FB,
FD,
00,
0B,
F8,
FC,
F4,
FB,
FF,
FF,
D9,
E9,
F9,
07,
0C,
E7,
FF,
10,
04,
0D,
01,
00,
0D,
0B,
F5,
01,
03,
FD,
01,
18,
E8,
F3,
FC,
F5,
03,
FA,
08,
00,
EA,
07,
F1,
ED,
07,
F5,
DC,
00,
FB,
FB,
0D,
FB,
04,
02,
FC,
F8,
FD,
FC,
05,
F6,
00,
FA,
FC,
FD,
FD,
FC,
0B,
EE,
04,
02,
FD,
FF,
08,
FC,
01,
FF,
01,
F9,
FE,
F7,
0B,
F1,
FF,
01,
F0,
FE,
FD,
E4,
F0,
02,
00,
00,
F9,
0D,
F7,
FF,
02,
0F,
F0,
FB,
FA,
EC,
FC,
00,
FF,
FD,
BC,
FF,
01,
01,
F7,
FF,
01,
FE,
FA,
00,
03,
FA,
F8,
04,
F2,
FF,
FE,
01,
E0,
F3,
06,
0B,
F5,
09,
FA,
FE,
03,
FF,
03,
F9,
F6,
F9,
FC,
02,
F0,
F4,
00,
04,
02,
FA,
FD,
FC,
03,
02,
FB,
FF,
FF,
0B,
F8,
04,
01,
FC,
FD,
0E,
FA,
05,
02,
F3,
01,
F1,
05,
04,
F7,
0A,
FC,
FF,
F9,
F7,
0D,
06,
FD,
FB,
0F,
01,
03,
F2,
0F,
07,
F0,
FE,
00,
F9,
05,
F7,
07,
FE,
FF,
0A,
07,
F8,
01,
00,
FD,
02,
F9,
0B,
01,
FB,
F7,
F6,
F7,
F8,
ED,
09,
FD,
06,
FF,
02,
EC,
FE,
F5,
F9,
F2,
F7,
01,
01,
01,
02,
06,
01,
00,
05,
F3,
E9,
0D,
FB,
FD,
FA,
D8,
00,
02,
03,
FF,
FE,
10,
01,
ED,
04,
14,
08,
FA,
FE,
00,
01,
F9,
F9,
F3,
09,
04,
0E,
FE,
FC,
0A,
F7,
03,
FD,
09,
FD,
F3,
F8,
FC,
FE,
F5,
0F,
14,
0B,
00,
DC,
07,
11,
FF,
01,
FF,
02,
FC,
02,
00,
04,
00,
02,
FF,
FF,
08,
12,
04,
EB,
E8,
F7,
09,
FF,
FB,
05,
04,
02,
F6,
FD,
FE,
F7,
FE,
08,
06,
07,
04,
E3,
06,
03,
F7,
F7,
06,
F3,
01,
FD,
09,
FF,
00,
05,
03,
06,
FD,
FC,
FE,
FE,
02,
FF,
F4,
ED,
F3,
06,
F5,
FA,
07,
01,
FD,
00,
06,
FF,
02,
02,
01,
07,
F7,
F6,
07,
FF,
FA,
FD,
00,
05,
F5,
0A,
ED,
F1,
01,
F8,
04,
FD,
F0,
00,
07,
07,
FE,
FE,
06,
02,
F5,
FF,
10,
02,
F4,
F8,
FA,
FC,
02,
07,
EC,
00,
0D,
04,
F6,
F8,
01,
08,
FD,
08,
FA,
02,
FD,
FB,
F9,
FF,
F0,
F3,
13,
0C,
0F,
F4,
FD,
0D,
03,
FD,
FF,
F8,
F4,
FD,
02,
FD,
FD,
07,
FD,
FB,
0A,
F1,
05,
F0,
ED,
FB,
0B,
05,
05,
0B,
FD,
FE,
02,
F8,
EE,
05,
07,
FD,
0F,
F4,
00,
E3,
F9,
05,
0D,
FE,
08,
EF,
0A,
04,
06,
04,
01,
09,
F8,
09,
F9,
00,
FC,
FD,
0F,
FF,
03,
F9,
FA,
08,
FC,
FF,
17,
03,
01,
08,
0B,
FD,
0C,
ED,
F8,
FB,
03,
07,
12,
FD,
F6,
06,
F5,
0B,
06,
0A,
EB,
F9,
05,
FC,
0A,
FF,
08,
FA,
06,
FC,
FD,
03,
F9,
02,
F2,
FD,
FE,
03,
F6,
FF,
F8,
FC,
04,
F3,
FF,
F6,
15,
05,
F3,
06,
03,
12,
04,
02,
F8,
FF,
04,
FF,
FF,
03,
00,
EF,
03,
06,
0E,
10,
03,
FC,
02,
F1,
08,
F2,
F6,
F9,
03,
F8,
FD,
0C,
03,
0A,
05,
FB,
01,
FA,
13,
FE,
0E,
FE,
0A,
06,
07,
F6,
FA,
EF,
04,
0A,
05,
F7,
0E,
F2,
FB,
F1,
F8,
05,
F5,
F8,
05,
00,
00,
12,
01,
03,
FE,
F5,
07,
07,
F8,
01,
FE,
FD,
FD,
F0,
0C,
01,
04,
03,
FF,
0C,
01,
FC,
FF,
06,
07,
FE,
F7,
00,
F7,
FF,
03,
17,
FA,
EE,
F7,
07,
FE,
04,
FB,
FF,
F5,
F8,
FC,
FB,
07,
FD,
07,
F6,
0E,
FA,
06,
FF,
F3,
03,
F3,
03,
FB,
01,
FB,
01,
F7,
FD,
04,
FF,
E6,
0D,
09,
FF,
EF,
09,
F0,
17,
FD,
F6,
0B,
01,
FF,
F8,
02,
FB,
03,
06,
F6,
F7,
07,
08,
FD,
FC,
FF,
F6,
0A,
01,
04,
FB,
09,
F3,
02,
02,
03,
F4,
FE,
0B,
06,
EE,
F6,
05,
0C,
03,
19,
06,
12,
03,
03,
FA,
0C,
09,
FD,
FB,
0C,
F4,
FF,
F8,
F9,
FF,
F8,
F6,
03,
F4,
F2,
05,
01,
02,
FC,
1B,
FF,
02,
05,
FD,
FF,
FE,
FE,
E6,
13,
FF,
05,
0F,
02,
08,
FD,
FC,
FD,
FB,
F3,
FD,
01,
09,
01,
FA,
F8,
08,
FD,
FA,
F6,
FB,
0A,
09,
E6,
F6,
03,
FF,
05,
03,
16,
00,
F8,
01,
09,
FF,
0B,
01,
F6,
08,
E8,
FE,
05,
08,
FF,
09,
FA,
00,
00,
0D,
EA,
01,
06,
EE,
F8,
0A,
F3,
0F,
03,
F2,
06,
FC,
01,
04,
00,
FE,
FF,
03,
FC,
02,
10,
06,
02,
00,
06,
FD,
03,
F8,
01,
02,
04,
F8,
03,
FF,
FF,
07,
05,
03,
F9,
F0,
F0,
00,
08,
00,
18,
15,
0E,
02,
09,
F2,
FF,
01,
FB,
FC,
09,
EE,
02,
F7,
00,
F9,
FB,
F0,
0A,
F2,
EC,
0D,
EF,
FE,
01,
25,
FE,
04,
15,
FB,
04,
FC,
F8,
D6,
07,
F8,
FD,
13,
04,
0B,
00,
F8,
FF,
02,
F7,
04,
03,
03,
F3,
FE,
0B,
0F,
01,
F8,
DE,
07,
04,
07,
ED,
03,
FC,
FA,
00,
03,
17,
FB,
F2,
F5,
0E,
05,
06,
FA,
F5,
03,
E3,
01,
05,
FD,
01,
01,
FA,
FE,
07,
1B,
DF,
FF,
02,
F6,
E9,
08,
00,
04,
02,
EE,
07,
01,
ED,
0F,
FC,
FC,
EC,
08,
FF,
FE,
FD,
FF,
03,
F6,
EE,
0B,
09,
F5,
1A,
05,
0A,
F4,
01,
08,
02,
05,
06,
FC,
00,
F9,
EB,
01,
06,
FC,
0E,
04,
07,
FE,
07,
FA,
FF,
01,
0B,
FC,
0D,
FB,
FF,
EF,
F5,
FA,
09,
FB,
04,
FB,
00,
08,
FA,
01,
00,
E8,
F8,
07,
FC,
02,
00,
FD,
06,
E7,
15,
00,
03,
11,
01,
02,
07,
FA,
FE,
04,
06,
FE,
0A,
FE,
FE,
F7,
0C,
0C,
FB,
F8,
F3,
09,
08,
07,
03,
FC,
00,
FE,
0A,
01,
13,
FD,
FA,
ED,
07,
05,
0B,
FF,
F8,
F9,
F2,
01,
07,
08,
FC,
07,
00,
FC,
06,
0B,
EC,
0F,
0A,
08,
F8,
0E,
FA,
0C,
FB,
EB,
0A,
FE,
F8,
FD,
04,
FE,
FB,
FF,
00,
00,
F6,
EF,
06,
FB,
F3,
F7,
14,
06,
0D,
F9,
05,
F0,
FF,
08,
00,
FE,
06,
01,
06,
F2,
0A,
F5,
0A,
FE,
02,
03,
0C,
FD,
F8,
F6,
F7,
09,
00,
F8,
0D,
F6,
FA,
E2,
F5,
F9,
04,
06,
0B,
F7,
0E,
06,
06,
FF,
04,
F4,
FC,
16,
F5,
00,
FF,
FD,
F6,
FE,
0F,
0C,
FD,
14,
02,
00,
07,
FE,
FC,
FD,
0B,
FB,
08,
E7,
E2,
01,
0B,
14,
01,
F7,
F2,
05,
F2,
FF,
08,
FB,
F5,
F3,
00,
FF,
05,
03,
0E,
F8,
FE,
03,
FF,
F7,
EE,
FF,
FF,
FC,
04,
FF,
FA,
03,
FA,
FE,
01,
0C,
F3,
FD,
08,
02,
F5,
FF,
F5,
1F,
FC,
F2,
FD,
00,
FF,
F9,
FF,
FC,
07,
F4,
09,
F4,
0E,
0C,
02,
00,
00,
EF,
12,
FC,
FC,
FB,
0B,
F7,
FD,
06,
02,
FC,
00,
FC,
11,
FB,
F7,
F3,
01,
04,
FD,
02,
FB,
F7,
F9,
06,
F6,
FA,
F8,
F8,
0C,
F9,
FD,
E4,
FE,
04,
04,
06,
02,
F4,
01,
FC,
00,
00,
01,
0F,
FB,
0E,
FF,
FF,
01,
02,
06,
FF,
F8,
02,
F5,
FD,
F8,
FD,
FF,
F9,
03,
EE,
0A,
03,
14,
F7,
ED,
19,
FC,
07,
FB,
FF,
FB,
F8,
FE,
F1,
F7,
03,
E8,
FB,
FB,
F7,
02,
FF,
04,
FA,
0D,
0D,
F4,
FE,
03,
00,
F3,
01,
F9,
FD,
00,
00,
01,
FB,
F8,
0C,
F1,
07,
07,
05,
EB,
FB,
00,
03,
02,
F3,
F4,
02,
EB,
FC,
F8,
00,
EC,
F2,
09,
F2,
17,
F5,
FA,
04,
FE,
F3,
FD,
FF,
FE,
FE,
01,
F9,
FD,
08,
00,
02,
02,
FE,
FB,
F7,
FA,
EA,
FE,
FD,
FF,
0C,
F7,
FC,
FE,
0B,
EF,
08,
F9,
FD,
0A,
08,
FD,
EA,
0D,
0A,
F7,
07,
F4,
F1,
06,
E4,
0D,
FE,
03,
09,
08,
07,
F8,
FB,
FF,
FD,
00,
0F,
EF,
01,
F5,
FA,
EF,
00,
F0,
07,
04,
FF,
01,
FB,
0A,
03,
DC,
18,
E4,
F7,
F6,
F6,
FB,
07,
0A,
F4,
F4,
02,
EF,
F4,
FE,
EE,
03,
FB,
FD,
FD,
05,
08,
F4,
FA,
02,
0C,
F5,
FB,
02,
09,
F1,
02,
03,
03,
F0,
09,
F6,
0E,
11,
FE,
F1,
05,
08,
FE,
03,
EE,
F7,
00,
ED,
F9,
FA,
02,
EE,
0D,
08,
F5,
EB,
DF,
FC,
06,
FD,
EE,
04,
FA,
EE,
F6,
0D,
FC,
00,
07,
FC,
03,
09,
01,
FD,
EB,
02,
F0,
02,
03,
02,
06,
F6,
FC,
FE,
F5,
03,
0B,
01,
F6,
07,
FB,
06,
F4,
0A,
04,
EC,
0B,
00,
FC,
0E,
F1,
08,
02,
01,
00,
FB,
FA,
F1,
03,
02,
04,
FE,
02,
F2,
02,
EF,
F7,
F9,
03,
F7,
03,
00,
06,
FE,
01,
F3,
FB,
EA,
0F,
E7,
F9,
FB,
FC,
F8,
00,
00,
02,
F8,
03,
02,
07,
03,
06,
FA,
01,
F9,
02,
FC,
FC,
01,
FC,
03,
06,
F0,
03,
F8,
07,
FA,
03,
FF,
FD,
03,
FD,
FE,
01,
FB,
FE,
04,
04,
FF,
FD,
02,
F2,
08,
F9,
05,
04,
00,
01,
D4,
09,
07,
06,
F9,
E8,
FC,
0C,
02,
FE,
10,
FB,
E2,
03,
06,
08,
00,
FB,
FE,
03,
F1,
14,
04,
F7,
00,
F7,
04,
01,
EA,
F7,
F8,
F2,
0D,
EC,
0A,
FA,
FA,
F3,
02,
02,
FF,
F6,
FD,
FA,
FE,
0A,
FC,
F4,
09,
FE,
E9,
00,
FD,
FE,
FA,
03,
F9,
02,
03,
02,
06,
F9,
04,
05,
FA,
FC,
F7,
03,
05,
EC,
FC,
08,
F5,
FC,
0B,
F4,
F6,
06,
F6,
FF,
FA,
00,
F2,
FA,
F3,
07,
F1,
F2,
FA,
02,
05,
FD,
EF,
02,
ED,
00,
F3,
ED,
00,
00,
05,
F7,
F1,
02,
FA,
0D,
FF,
12,
F5,
00,
F3,
02,
F4,
F4,
F7,
F5,
F6,
09,
03,
05,
03,
01,
F6,
F5,
FB,
0B,
F5,
01,
D9,
F9,
04,
0D,
ED,
E5,
FE,
10,
FE,
02,
05,
EE,
FB,
09,
02,
00,
00,
FF,
01,
FE,
F1,
F9,
F8,
FF,
FE,
10,
0C,
FF,
EA,
FF,
F6,
DD,
02,
F8,
0B,
F9,
FF,
FB,
FB,
FC,
FF,
EB,
0B,
02,
01,
01,
EF,
06,
FA,
00,
F2,
FD,
04,
06,
04,
0E,
04,
FD,
02,
02,
FD,
00,
01,
07,
EF,
FF,
05,
02,
08,
F8,
FE,
0A,
F1,
FE,
02,
03,
FC,
0D,
F3,
05,
F2,
0C,
FE,
F3,
EE,
01,
E8,
F2,
FC,
0A,
FC,
00,
00,
FD,
F9,
0C,
F5,
F4,
03,
FB,
FA,
F5,
07,
01,
F9,
0D,
00,
0B,
06,
FD,
F2,
14,
01,
05,
0C,
F2,
F1,
0D,
05,
00,
03,
FB,
00,
F2,
00,
00,
00,
FF,
DA,
FB,
01,
08,
EC,
DB,
03,
04,
F7,
0A,
FF,
F0,
FE,
0C,
FE,
0A,
00,
F9,
FF,
08,
E3,
F4,
FE,
03,
EB,
05,
0A,
03,
06,
0E,
F0,
FB,
EA,
F0,
02,
03,
07,
F1,
08,
F8,
FD,
05,
FA,
1B,
E9,
01,
F9,
04,
F6,
09,
ED,
FE,
FF,
FC,
05,
02,
F6,
01,
FC,
FC,
F4,
10,
08,
EA,
F3,
04,
04,
01,
08,
09,
03,
0C,
00,
01,
01,
FE,
0D,
07,
03,
0D,
F2,
0A,
08,
FC,
FB,
F2,
FD,
EF,
01,
0E,
F6,
05,
0A,
FF,
E0,
0D,
FE,
F9,
0B,
FE,
E7,
04,
07,
01,
02,
0E,
02,
F8,
02,
FF,
FF,
0D,
09,
04,
07,
EE,
0C,
0D,
07,
FF,
01,
E7,
F0,
F6,
06,
F9,
FA,
FC,
DE,
FD,
FE,
07,
FC,
F8,
FD,
05,
03,
0B,
01,
EF,
01,
09,
10,
0A,
FB,
FC,
02,
F5,
F2,
0D,
07,
0A,
01,
13,
FF,
01,
FB,
08,
F6,
FC,
F0,
F8,
00,
FA,
04,
0D,
05,
13,
04,
0E,
09,
21,
E7,
12,
F8,
F7,
08,
E5,
DF,
00,
01,
04,
0B,
FF,
E7,
00,
04,
FC,
03,
FB,
08,
DA,
0E,
E1,
F0,
FB,
26,
27,
00,
EE,
FA,
FC,
08,
F4,
04,
05,
F7,
0D,
EA,
03,
11,
00,
06,
E9,
ED,
FA,
0E,
11,
F9,
06,
F9,
00,
E3,
05,
FC,
03,
E1,
02,
F1,
0C,
20,
03,
FE,
18,
09,
FF,
0C,
FA,
FD,
0A,
04,
12,
03,
FA,
17,
FE,
0D,
F1,
02,
00,
04,
02,
FB,
05,
D3,
FE,
F2,
FC,
F3,
13,
02,
EC,
04,
21,
16,
F9,
F9,
F8,
10,
F8,
FB,
EB,
FE,
F2,
FC,
0C,
06,
09,
D6,
04,
02,
27,
02,
02,
1A,
0C,
09,
D8,
E9,
F5,
0E,
FB,
04,
09,
16,
FF,
10,
00,
07,
13,
00,
FE,
07,
00,
E0,
EA,
F8,
02,
FB,
0C,
FC,
02,
FE,
FD,
01,
FD,
FB,
EC,
1F,
D8,
01,
E0,
05,
F3,
05,
E7,
03,
FB,
FE,
00,
08,
FF,
FD,
FD,
F1,
14,
DC,
07,
26,
F4,
1B,
01,
DC,
EB,
01,
09,
F4,
0D,
FE,
FE,
DF,
F9,
00,
06,
F9,
02,
EC,
02,
F9,
00,
FF,
0E,
0B,
19,
0B,
FF,
01,
09,
F8,
16,
FA,
E8,
1F,
0D,
E6,
08,
FD,
F9,
CC,
03,
1E,
03,
03,
04,
F5,
F5,
EA,
0B,
ED,
ED,
04,
05,
1E,
0B,
FA,
DC,
F5,
E7,
F6,
FA,
02,
FF,
FE,
E9,
FD,
2A,
D5,
09,
07,
08,
05,
01,
01,
00,
11,
EF,
FB,
14,
0F,
EB,
ED,
06,
EF,
DC,
0B,
05,
0A,
E6,
1F,
12,
1F,
10,
0C,
FA,
0C,
03,
FE,
FF,
FE,
0D,
EC,
04,
01,
02,
F3,
05,
1D,
E1,
00,
E6,
15,
E3,
F3,
D0,
FE,
FF,
C7,
FE,
0F,
1B,
07,
FC,
08,
FA,
ED,
0F,
F7,
F4,
17,
00,
F1,
F8,
13,
1B,
FD,
13,
F7,
FD,
BC,
F9,
EB,
13,
05,
FE,
ED,
10,
FF,
03,
F7,
FB,
08,
18,
EF,
00,
F1,
07,
06,
FC,
E9,
FA,
06,
07,
F4,
FC,
00,
14,
08,
FD,
1A,
12,
33,
FC,
00,
09,
F6,
1C,
F9,
FE,
06,
11,
F1,
FD,
E2,
E1,
01,
00,
E2,
EA,
FF,
01,
02,
07,
F4,
20,
EB,
02,
F3,
EC,
F8,
FD,
06,
FD,
03,
EF,
FB,
02,
09,
F7,
01,
F9,
E3,
CE,
01,
0D,
11,
DF,
26,
07,
07,
14,
0A,
18,
08,
01,
02,
F3,
0A,
12,
1A,
FD,
FF,
01,
23,
FF,
0C,
F2,
27,
FB,
1F,
FF,
EA,
DB,
FF,
05,
E0,
00,
09,
0A,
12,
FC,
0A,
F3,
FF,
0C,
F6,
EE,
18,
07,
D5,
FA,
1E,
11,
F4,
08,
F7,
FD,
DE,
17,
D2,
0C,
17,
F9,
ED,
07,
EA,
FF,
F4,
EC,
FE,
17,
04,
FC,
07,
0F,
FF,
F7,
FE,
FD,
05,
FE,
F5,
00,
00,
18,
15,
01,
E7,
ED,
1E,
FD,
FC,
10,
07,
28,
03,
EE,
08,
0C,
EE,
F2,
E6,
E0,
FE,
F7,
F4,
F7,
00,
F9,
FD,
13,
F6,
28,
FF,
F9,
04,
F5,
F8,
04,
1E,
0B,
1C,
F8,
18,
FD,
EA,
06,
FC,
11,
08,
DB,
FF,
11,
F7,
F1,
04,
F4,
EF,
09,
FC,
FF,
04,
01,
FF,
FC,
01,
14,
09,
03,
FC,
00,
3C,
02,
09,
F3,
15,
19,
F5,
04,
F1,
EE,
FD,
0B,
F9,
04,
FC,
EF,
FC,
17,
0D,
FB,
00,
01,
EC,
E7,
00,
FD,
E8,
FD,
0E,
04,
F8,
E8,
03,
FE,
FF,
06,
F7,
1D,
08,
FD,
F4,
FB,
00,
01,
01,
12,
17,
03,
F2,
03,
E1,
1F,
10,
25,
14,
F9,
0C,
02,
EE,
F0,
04,
01,
11,
FE,
E7,
00,
03,
02,
FA,
F0,
1C,
E8,
00,
EF,
04,
0A,
FC,
01,
E9,
ED,
FA,
DB,
16,
F4,
02,
F9,
04,
08,
FA,
22,
FE,
E9,
09,
DF,
05,
FD,
1A,
16,
12,
F4,
CE,
1F,
10,
11,
EC,
1C,
04,
00,
FA,
1D,
E6,
13,
16,
1A,
28,
FF,
0E,
00,
09,
FC,
04,
07,
F6,
FA,
F8,
04,
04,
02,
FF,
FD,
14,
12,
DB,
2D,
FE,
D0,
E8,
06,
FE,
FC,
FF,
FC,
05,
04,
FF,
02,
FE,
E6,
0C,
21,
FD,
FC,
0C,
0B,
05,
F7,
1C,
FE,
00,
EA,
03,
FF,
F7,
FA,
F0,
FB,
FD,
06,
F3,
13,
FD,
04,
00,
EE,
01,
DD,
DF,
04,
F3,
10,
10,
F2,
13,
FD,
F5,
00,
DF,
1C,
03,
0D,
19,
0B,
01,
F9,
10,
04,
01,
29,
FC,
EB,
13,
EB,
09,
FA,
1C,
F4,
EF,
E3,
F7,
E3,
11,
FC,
FE,
05,
03,
03,
F4,
1B,
13,
ED,
0A,
F4,
F4,
FC,
0A,
FC,
03,
EA,
F9,
F9,
1A,
0A,
F6,
F2,
E0,
E6,
E7,
1B,
09,
E9,
14,
07,
17,
11,
F3,
14,
09,
01,
04,
F4,
FD,
FE,
FD,
FD,
FD,
03,
22,
08,
01,
1B,
0A,
05,
25,
EC,
16,
DF,
01,
16,
E7,
FE,
F5,
0F,
F0,
03,
1D,
EB,
00,
15,
0E,
FC,
F9,
0A,
13,
FE,
0B,
EA,
F7,
F1,
06,
01,
FE,
F8,
E1,
1B,
FB,
00,
EA,
16,
0F,
FC,
08,
EA,
FC,
0D,
07,
00,
07,
05,
1F,
0F,
EE,
FB,
E1,
F4,
D0,
FA,
FF,
0F,
0B,
09,
EA,
09,
16,
FB,
01,
15,
FC,
EF,
18,
EB,
1A,
02,
EB,
EE,
E6,
05,
FF,
07,
EA,
00,
FE,
09,
01,
12,
FA,
1F,
FA,
FB,
FC,
16,
11,
FF,
F7,
F9,
F0,
E1,
F3,
F4,
05,
06,
02,
ED,
03,
08,
04,
10,
00,
F2,
13,
EC,
02,
F1,
01,
0B,
FF,
FC,
03,
F6,
F9,
01,
11,
FD,
02,
02,
07,
F7,
FE,
1B,
14,
F3,
0C,
01,
E4,
C3,
FD,
0C,
E5,
FF,
EA,
FD,
02,
FE,
0A,
13,
EE,
F7,
F1,
EC,
08,
03,
02,
F8,
05,
FB,
01,
09,
05,
00,
F0,
FD,
05,
02,
EE,
05,
04,
F2,
0F,
02,
05,
F8,
04,
1B,
04,
FB,
0B,
F5,
1D,
11,
E7,
F6,
FF,
EF,
F0,
FB,
03,
1B,
FA,
FE,
F9,
0B,
F3,
FE,
FE,
F4,
02,
EE,
0C,
E4,
FF,
17,
F7,
13,
E8,
FB,
12,
1B,
0D,
0E,
03,
02,
01,
F6,
05,
0D,
DC,
07,
ED,
FA,
0E,
03,
EF,
F2,
DA,
C7,
04,
F8,
F7,
0A,
F8,
FC,
0C,
1F,
0A,
FA,
03,
FC,
00,
E1,
FE,
E8,
DE,
F5,
F8,
FE,
02,
E0,
06,
09,
0E,
FC,
04,
FE,
06,
F3,
F4,
12,
08,
EE,
FD,
20,
1E,
CB,
00,
E5,
F2,
04,
F2,
02,
05,
F9,
FF,
0D,
DB,
ED,
F7,
E8,
12,
07,
FD,
FC,
FE,
FA,
10,
0C,
04,
06,
E9,
FD,
0A,
00,
EF,
08,
E9,
FE,
00,
00,
E4,
FD,
FA,
14,
03,
01,
04,
EF,
0D,
FA,
F8,
F8,
FE,
F6,
FC,
FE,
03,
0C,
E7,
08,
07,
05,
F9,
03,
F6,
EE,
F7,
08,
00,
F8,
03,
F3,
0E,
08,
0A,
04,
01,
FD,
FB,
01,
FF,
F8,
02,
00,
F9,
18,
DF,
02,
00,
05,
06,
00,
26,
EF,
BC,
E4,
F6,
0D,
0C,
0F,
16,
03,
10,
FE,
08,
00,
FD,
1C,
D6,
06,
04,
F3,
0E,
ED,
E9,
FF,
FE,
11,
07,
F3,
F4,
02,
03,
FD,
05,
F1,
13,
FE,
0C,
00,
FC,
08,
0C,
20,
FE,
F1,
18,
00,
F4,
F2,
FB,
E8,
E9,
03,
FB,
E6,
19,
E3,
13,
10,
FD,
EF,
11,
06,
06,
10,
0A,
01,
DF,
EF,
05,
FA,
FE,
FA,
02,
FC,
09,
FC,
E2,
11,
FE,
05,
00,
FE,
F9,
F5,
EF,
06,
F2,
F0,
0B,
0D,
00,
F9,
FD,
00,
C1,
FF,
0D,
07,
ED,
04,
EF,
07,
FC,
FE,
14,
EE,
06,
FA,
15,
F7,
0C,
F7,
FF,
01,
FA,
FA,
FC,
F8,
00,
04,
03,
02,
F3,
FF,
10,
0F,
FD,
04,
F1,
FE,
F1,
EA,
04,
0E,
00,
09,
FC,
10,
08,
07,
08,
08,
00,
0A,
F8,
10,
09,
03,
FD,
F8,
EF,
FC,
FE,
F6,
06,
F8,
FC,
FD,
02,
FD,
FC,
F9,
07,
E7,
00,
08,
FB,
02,
14,
04,
04,
13,
04,
FC,
12,
F1,
F5,
F1,
04,
04,
F7,
04,
0C,
EB,
F2,
02,
EE,
F7,
0C,
EE,
FD,
0B,
FC,
FD,
EA,
F6,
06,
09,
08,
F7,
0E,
00,
FE,
02,
F6,
FE,
01,
F5,
02,
FE,
EE,
FC,
F5,
ED,
09,
F8,
01,
F9,
07,
F1,
00,
F5,
03,
00,
00,
06,
F0,
FE,
E9,
EB,
FE,
07,
0A,
F6,
02,
03,
03,
07,
09,
F6,
09,
05,
0C,
F9,
FD,
F9,
FF,
FE,
F7,
F8,
FD,
05,
EC,
05,
FE,
FD,
D8,
FF,
EC,
07,
0A,
FF,
FE,
FA,
0A,
F9,
FC,
07,
03,
03,
15,
10,
F5,
09,
ED,
FB,
02,
01,
FF,
00,
04,
F6,
FC,
FC,
02,
03,
01,
FE,
07,
F3,
FB,
E4,
FF,
F9,
02,
F6,
F9,
03,
FC,
10,
F7,
00,
FE,
07,
10,
02,
FB,
01,
08,
05,
12,
E9,
DF,
09,
EA,
F8,
0E,
F1,
FE,
11,
04,
04,
DC,
FA,
FC,
0E,
FA,
08,
0D,
F3,
FE,
01,
F0,
0E,
FC,
10,
12,
02,
ED,
FF,
ED,
F6,
0C,
C5,
06,
FF,
07,
F8,
02,
04,
FE,
FF,
08,
FE,
F2,
05,
D9,
02,
FF,
03,
12,
EC,
01,
11,
02,
01,
01,
FF,
F9,
07,
F8,
F6,
FF,
01,
FF,
09,
EC,
0F,
FD,
EF,
FB,
03,
FE,
FC,
E8,
FD,
00,
02,
12,
04,
EE,
FC,
01,
F6,
FD,
02,
04,
0A,
00,
F8,
03,
FC,
FB,
F9,
02,
F7,
FE,
FC,
FC,
FB,
06,
FF,
0D,
FD,
02,
FB,
F8,
05,
FD,
F9,
02,
04,
F5,
0A,
F2,
FC,
00,
08,
FE,
02,
FB,
0B,
F2,
F7,
FB,
FD,
02,
0B,
F1,
EA,
E5,
07,
E2,
00,
FE,
EE,
FF,
FE,
F0,
03,
DB,
07,
F4,
0A,
05,
FC,
06,
0F,
F7,
FC,
F7,
F8,
FA,
0E,
04,
FB,
F8,
02,
EF,
FB,
08,
F8,
E8,
FA,
06,
02,
FC,
09,
00,
04,
F8,
00,
FE,
05,
D2,
F4,
F5,
FA,
10,
FA,
06,
08,
FF,
0E,
07,
07,
15,
05,
F9,
FE,
FD,
00,
00,
09,
EC,
EF,
02,
ED,
EF,
F9,
01,
FF,
F4,
F7,
F4,
ED,
11,
04,
E0,
FB,
FB,
03,
05,
03,
07,
02,
FD,
FA,
03,
FB,
06,
F7,
FB,
F7,
F6,
00,
FC,
FD,
03,
EC,
04,
03,
FD,
FD,
0A,
09,
FB,
01,
F9,
F8,
F0,
F1,
00,
F6,
FC,
F1,
F6,
01,
F5,
FD,
E7,
F1,
F7,
00,
F4,
0C,
EF,
0B,
02,
13,
FE,
02,
0C,
F6,
08,
01,
04,
FD,
CC,
F9,
18,
04,
F9,
FD,
FE,
00,
F3,
04,
03,
F5,
F5,
FC,
F6,
FB,
FC,
FC,
F8,
F3,
03,
0E,
F3,
09,
FD,
F9,
04,
07,
0A,
02,
FB,
03,
F8,
01,
E0,
F5,
FF,
04,
05,
F1,
03,
FD,
03,
0A,
F9,
FE,
0A,
05,
FA,
0B,
FF,
05,
03,
0E,
00,
FE,
01,
FB,
F5,
F9,
06,
FD,
F4,
00,
03,
FC,
07,
0B,
05,
0A,
FA,
09,
06,
0A,
FB,
EC,
06,
F7,
FA,
FC,
0B,
FA,
07,
05,
06,
04,
FE,
02,
04,
F3,
FC,
02,
FB,
03,
01,
06,
F8,
05,
EE,
FD,
FB,
00,
F6,
00,
01,
06,
03,
FD,
03,
FE,
E7,
FA,
F9,
FB,
05,
FD,
FD,
02,
F9,
06,
03,
02,
04,
F2,
05,
FD,
09,
01,
E7,
FC,
04,
01,
00,
FD,
02,
00,
00,
FC,
0B,
02,
FA,
F9,
02,
00,
FD,
0A,
F2,
00,
03,
02,
F7,
FB,
06,
06,
FC,
09,
04,
08,
FB,
FB,
F4,
05,
E4,
03,
10,
F8,
FF,
F3,
06,
0B,
FD,
FF,
04,
05,
FC,
FA,
08,
08,
02,
08,
03,
08,
07,
07,
0D,
02,
F6,
F9,
F8,
01,
04,
08,
06,
FC,
FF,
01,
F7,
F5,
02,
07,
02,
0B,
05,
EB,
FE,
FD,
06,
F7,
0F,
FE,
0B,
02,
08,
03,
03,
FC,
0B,
FC,
00,
02,
00,
01,
0F,
FD,
F9,
F8,
F9,
04,
F5,
FD,
12,
FE,
FF,
F9,
0C,
FD,
0E,
F0,
05,
02,
04,
FD,
07,
F9,
F6,
01,
05,
FE,
00,
06,
FB,
FF,
FC,
F8,
F3,
FF,
FE,
FE,
06,
05,
FD,
02,
F7,
00,
05,
02,
0C,
F0,
FD,
F5,
FE,
FA,
0C,
0B,
F5,
F7,
16,
FF,
ED,
EE,
F6,
0E,
03,
18,
FA,
07,
F1,
FA,
F9,
04,
EC,
EB,
05,
07,
08,
00,
FF,
07,
FA,
F8,
05,
00,
03,
F8,
05,
01,
FE,
05,
03,
FE,
07,
F6,
03,
02,
F6,
04,
FF,
FE,
FF,
F7,
0A,
FA,
0B,
F9,
FE,
F3,
FA,
FE,
FF,
04,
04,
F8,
FA,
08,
0B,
FA,
08,
F5,
0C,
0A,
01,
FD,
03,
FC,
F4,
06,
04,
FC,
04,
FB,
10,
02,
F7,
FA,
F4,
0E,
FB,
FB,
14,
FE,
FF,
FF,
0E,
FC,
02,
F9,
00,
03,
0A,
03,
07,
EF,
F6,
F9,
F4,
04,
FF,
02,
F6,
08,
FA,
F9,
00,
00,
09,
00,
FB,
FE,
F6,
FC,
F9,
00,
03,
FD,
09,
FC,
F8,
01,
F3,
FB,
0E,
FC,
FE,
F5,
0E,
01,
EF,
07,
01,
0C,
FD,
00,
01,
0B,
01,
04,
FD,
00,
05,
EC,
0B,
FD,
0C,
03,
00,
F8,
01,
F3,
0A,
F7,
00,
F8,
04,
F5,
FE,
0F,
02,
0D,
03,
FF,
0E,
06,
10,
FB,
06,
FB,
F9,
F2,
08,
07,
FE,
FE,
08,
06,
02,
F8,
01,
03,
00,
00,
FF,
05,
02,
03,
08,
03,
0C,
0B,
F7,
03,
FF,
F1,
01,
07,
00,
00,
01,
03,
01,
F2,
01,
06,
FE,
0B,
FF,
FD,
0D,
07,
03,
04,
08,
FF,
01,
FC,
FC,
F8,
FE,
09,
FB,
F5,
F4,
FF,
EF,
FB,
FB,
FD,
FF,
09,
00,
02,
02,
01,
09,
08,
00,
F8,
FC,
FC,
01,
05,
00,
04,
11,
00,
05,
FC,
F1,
FF,
FE,
FF,
F7,
05,
04,
FC,
F0,
05,
FD,
0C,
FF,
04,
FE,
0A,
01,
03,
FC,
FF,
11,
FD,
FA,
05,
0A,
FF,
FD,
FF,
01,
F7,
08,
01,
FE,
F4,
08,
F6,
02,
06,
FB,
08,
09,
04,
14,
0D,
03,
FD,
04,
FB,
06,
FD,
0C,
10,
05,
02,
FF,
11,
02,
F6,
04,
F4,
FC,
FE,
00,
F8,
F9,
F2,
07,
F0,
00,
0B,
05,
02,
FD,
14,
FA,
0C,
02,
03,
FF,
02,
F6,
E7,
0F,
FF,
F8,
05,
03,
05,
F5,
00,
00,
08,
FD,
02,
04,
01,
F8,
FE,
0B,
0F,
05,
EE,
07,
FD,
01,
FB,
FB,
FD,
03,
FF,
FC,
07,
11,
00,
F7,
01,
04,
FE,
00,
FA,
F3,
04,
F7,
FF,
FA,
FC,
FC,
FA,
FA,
03,
FE,
02,
FA,
01,
F6,
EC,
F8,
FC,
00,
11,
FE,
FC,
06,
0A,
0C,
FB,
01,
FC,
06,
0B,
F4,
FB,
05,
0B,
F9,
FC,
FA,
00,
0E,
02,
06,
F1,
08,
F5,
01,
05,
FE,
0F,
08,
09,
08,
F4,
F4,
01,
FF,
03,
15,
08,
17,
0F,
03,
F2,
17,
04,
02,
FA,
0C,
F5,
F8,
04,
03,
00,
F9,
F9,
0C,
F2,
02,
0A,
F1,
03,
FD,
18,
FA,
08,
0C,
00,
FD,
FF,
F5,
DC,
10,
F8,
F5,
0A,
FB,
0F,
00,
FF,
FE,
FF,
FD,
02,
0C,
00,
01,
04,
0A,
18,
00,
F7,
F7,
FC,
01,
F7,
F0,
FF,
00,
10,
02,
11,
12,
FF,
FE,
FD,
06,
FF,
FD,
FF,
EF,
01,
FC,
02,
F7,
01,
FD,
ED,
F9,
FB,
0A,
0F,
F7,
01,
FA,
EC,
EE,
01,
FE,
12,
00,
FA,
08,
06,
FE,
0E,
F5,
FD,
07,
0D,
F7,
04,
0C,
0C,
00,
FD,
EF,
0A,
0A,
FD,
0E,
F9,
FD,
F4,
FE,
0A,
FD,
17,
04,
FF,
02,
05,
06,
06,
00,
01,
03,
03,
0D,
F7,
04,
FC,
F8,
F4,
06,
FA,
0A,
FF,
FD,
F6,
F5,
04,
09,
03,
01,
FE,
0C,
00,
04,
FE,
01,
EA,
FD,
0C,
F8,
01,
04,
FC,
FC,
F3,
08,
13,
01,
0D,
F9,
01,
02,
01,
00,
0B,
01,
FE,
0B,
FD,
EB,
FE,
02,
0C,
F9,
FD,
00,
09,
F7,
F6,
05,
FE,
01,
06,
01,
FF,
03,
FD,
08,
01,
01,
0C,
04,
F9,
F7,
FF,
FE,
01,
07,
FE,
FE,
F3,
FB,
02,
00,
12,
F6,
08,
FE,
0F,
F9,
02,
FB,
0B,
03,
FE,
FF,
01,
FA,
06,
02,
FF,
00,
F6,
06,
FF,
EB,
ED,
00,
08,
05,
F5,
0F,
03,
0F,
F0,
01,
FA,
00,
08,
03,
0F,
01,
03,
07,
07,
02,
FA,
F8,
00,
FB,
FD,
0B,
02,
FA,
FB,
FD,
08,
01,
F4,
01,
F9,
03,
F5,
F9,
FF,
00,
FD,
0B,
F3,
07,
0A,
FF,
FC,
02,
F7,
01,
FD,
04,
02,
03,
02,
00,
F4,
F6,
10,
F5,
0E,
F9,
04,
F8,
00,
FC,
01,
09,
01,
03,
EC,
E6,
00,
0D,
03,
01,
F4,
F0,
06,
F2,
E9,
02,
FC,
FE,
0D,
F7,
01,
FD,
04,
02,
FE,
F4,
01,
03,
FD,
F4,
02,
08,
01,
0A,
01,
FC,
FC,
F5,
03,
07,
0C,
00,
F8,
02,
06,
F1,
F9,
F4,
14,
00,
FB,
01,
04,
FB,
07,
FA,
FB,
FD,
F2,
00,
FA,
DE,
FD,
FF,
F7,
01,
F2,
0F,
FD,
08,
F1,
07,
FA,
FD,
00,
00,
02,
03,
01,
0C,
FB,
EE,
FB,
FC,
02,
02,
F5,
0D,
FA,
FA,
02,
F8,
FC,
FC,
F6,
05,
05,
FC,
E9,
02,
0D,
04,
0C,
FE,
F2,
07,
FA,
F9,
02,
FC,
05,
FB,
04,
F9,
FE,
FE,
01,
04,
02,
F8,
FA,
F5,
0B,
EF,
FC,
FF,
0B,
03,
02,
09,
FF,
11,
F5,
ED,
18,
F9,
FC,
F9,
F9,
00,
F8,
08,
F3,
F4,
F9,
F3,
03,
FB,
F8,
01,
01,
0B,
F9,
0B,
06,
F3,
F5,
FD,
03,
04,
FE,
FE,
02,
FE,
FA,
F9,
FB,
00,
04,
F7,
06,
16,
FA,
F6,
00,
FB,
15,
FB,
FB,
08,
FC,
06,
FC,
F4,
00,
F1,
F8,
04,
FF,
F5,
FC,
FB,
05,
FC,
E8,
09,
FD,
EF,
F5,
0B,
F2,
FF,
07,
FD,
03,
07,
03,
06,
FC,
11,
03,
FC,
FC,
01,
03,
FC,
F3,
FF,
0C,
FB,
04,
FD,
F9,
0B,
04,
03,
EC,
07,
00,
03,
04,
00,
F5,
FD,
F8,
10,
FD,
00,
FC,
F6,
01,
09,
FF,
00,
01,
05,
FD,
F2,
05,
F6,
FC,
F3,
FA,
F8,
FB,
FC,
F4,
01,
FB,
06,
00,
DE,
13,
F7,
00,
F0,
FE,
F5,
F9,
09,
F5,
FD,
04,
EC,
F9,
FB,
F9,
FC,
FE,
FD,
EC,
07,
01,
FB,
FD,
04,
0A,
FD,
FF,
F6,
FE,
F8,
00,
06,
02,
FA,
F3,
F7,
03,
06,
01,
F0,
FF,
FB,
FF,
FE,
FB,
FB,
06,
F5,
F7,
FB,
FE,
F2,
05,
03,
F4,
F5,
F5,
FF,
01,
00,
FB,
08,
03,
FA,
01,
FB,
FF,
03,
07,
00,
FD,
07,
FC,
FF,
F6,
F8,
FA,
04,
02,
00,
FA,
FF,
F1,
03,
06,
FA,
06,
FF,
F8,
0A,
FD,
02,
EF,
11,
01,
F5,
01,
03,
FE,
FE,
F3,
00,
FE,
FC,
F8,
F1,
EE,
FB,
FC,
00,
FE,
03,
02,
F6,
F8,
F5,
F5,
F3,
00,
F8,
FD,
03,
F4,
FE,
FF,
F8,
FC,
F0,
F9,
EA,
F8,
EF,
06,
F4,
04,
09,
01,
03,
FA,
04,
FD,
09,
F3,
FD,
00,
E7,
F0,
0D,
00,
FD,
FD,
03,
06,
FD,
02,
F8,
05,
F8,
FC,
06,
FE,
00,
01,
F5,
0C,
06,
FE,
FF,
FF,
00,
FB,
02,
03,
00,
05,
05,
00,
05,
FD,
CE,
08,
F9,
02,
FE,
EC,
02,
00,
FD,
FD,
0D,
03,
FB,
03,
FF,
06,
FE,
0C,
FF,
02,
FB,
0D,
FA,
FC,
F9,
F7,
06,
FD,
F0,
ED,
FA,
03,
09,
F6,
06,
FE,
FE,
FE,
01,
FA,
02,
FA,
00,
FD,
06,
04,
FB,
FD,
02,
F3,
F6,
02,
01,
F9,
FB,
00,
07,
FF,
FD,
FD,
01,
FE,
FA,
0A,
FB,
F5,
ED,
0C,
EF,
FA,
FB,
FD,
F7,
03,
F8,
05,
0F,
F1,
F3,
00,
F1,
FE,
F1,
0C,
F9,
FF,
FA,
F8,
06,
13,
03,
08,
F4,
00,
EB,
00,
0C,
F4,
F8,
01,
04,
01,
E8,
04,
FF,
04,
05,
0F,
FF,
FB,
F7,
05,
F8,
01,
04,
F6,
F1,
FF,
09,
F6,
FE,
0E,
F7,
04,
F8,
0F,
EE,
02,
D4,
FD,
F0,
11,
04,
F0,
06,
13,
F5,
0B,
01,
07,
FD,
0D,
F5,
FC,
FD,
05,
01,
F8,
FB,
00,
FC,
0C,
F9,
0C,
04,
FE,
E0,
FB,
FD,
F6,
0C,
ED,
FE,
FF,
0C,
F4,
FB,
03,
00,
00,
08,
FD,
FA,
02,
F4,
FC,
0A,
FB,
FF,
FF,
FF,
00,
FD,
0C,
0B,
00,
FC,
02,
03,
0D,
FE,
F8,
F6,
04,
04,
06,
08,
03,
FB,
0C,
EF,
FD,
F3,
07,
04,
F9,
F5,
04,
FA,
02,
F5,
F8,
E2,
FA,
FE,
FA,
0E,
07,
01,
01,
FE,
00,
FA,
02,
F3,
09,
00,
FC,
FB,
03,
F7,
FE,
FA,
09,
FE,
19,
07,
FF,
F3,
03,
04,
05,
15,
E4,
F3,
06,
05,
F9,
04,
FF,
ED,
FB,
FF,
06,
F6,
03,
D1,
FF,
00,
FF,
FF,
EF,
06,
09,
F1,
FE,
07,
F7,
08,
02,
FF,
FA,
FE,
FE,
FD,
02,
E6,
F7,
06,
08,
F2,
12,
01,
FC,
ED,
08,
F7,
F6,
03,
F1,
05,
05,
07,
FC,
00,
FA,
FB,
08,
07,
0E,
FB,
04,
FA,
0F,
01,
F9,
E9,
FE,
FF,
F0,
01,
06,
00,
01,
FD,
FE,
12,
07,
08,
EA,
00,
07,
13,
F6,
0F,
00,
FD,
16,
F8,
03,
0E,
EE,
0A,
FA,
00,
06,
FD,
09,
0F,
F3,
F6,
FE,
F6,
E9,
FF,
05,
EE,
0E,
09,
FC,
F1,
04,
FE,
FE,
0F,
FC,
02,
F9,
FA,
01,
FF,
0F,
02,
FD,
08,
FC,
EF,
02,
F6,
FB,
09,
EA,
03,
0C,
07,
F7,
FD,
EB,
F8,
03,
0C,
01,
FA,
00,
DB,
FD,
F9,
02,
FA,
03,
01,
09,
FE,
03,
FC,
F7,
EE,
FF,
08,
FB,
00,
FF,
04,
F2,
F0,
0C,
06,
00,
F8,
04,
FF,
00,
FD,
05,
F7,
FF,
FA,
E7,
07,
FE,
0A,
F6,
02,
F6,
08,
09,
0B,
16,
EE,
16,
04,
05,
16,
ED,
DD,
FD,
03,
FD,
04,
06,
ED,
FB,
FF,
00,
FC,
F9,
0F,
F2,
0B,
F6,
11,
0C,
1D,
1F,
FE,
03,
00,
FE,
01,
F3,
04,
06,
00,
0B,
D9,
11,
09,
F3,
FE,
F8,
F8,
F4,
17,
06,
F6,
0B,
FE,
02,
EC,
02,
ED,
1D,
ED,
FF,
FC,
08,
0D,
FE,
FF,
10,
05,
00,
0C,
FD,
E7,
01,
07,
20,
05,
F6,
13,
F7,
08,
F1,
FC,
F6,
DE,
0B,
03,
12,
F3,
FD,
E8,
04,
F3,
08,
01,
09,
03,
1F,
05,
F5,
0B,
00,
FB,
F4,
F4,
F5,
01,
F6,
04,
F9,
00,
03,
F2,
0B,
FE,
0A,
FA,
01,
11,
18,
FA,
F2,
05,
DD,
FE,
FF,
08,
F3,
14,
02,
0C,
0D,
FD,
11,
FB,
F0,
FA,
FC,
E8,
E1,
FE,
04,
02,
08,
FF,
09,
E4,
FE,
01,
01,
12,
FA,
17,
DF,
05,
E7,
FE,
09,
24,
E7,
FE,
08,
06,
FF,
0E,
F2,
02,
F1,
F9,
11,
E7,
04,
01,
FA,
24,
F5,
FF,
F7,
0D,
07,
F9,
12,
FE,
02,
EC,
F5,
00,
FC,
F1,
F9,
F1,
01,
F7,
FD,
0B,
11,
09,
05,
03,
FB,
FE,
07,
00,
09,
03,
F0,
18,
FF,
F4,
06,
02,
02,
B3,
06,
FA,
03,
F8,
04,
EF,
EB,
EC,
FF,
00,
F7,
03,
03,
18,
08,
10,
EA,
12,
DC,
FA,
EA,
FE,
02,
FD,
03,
00,
13,
EB,
10,
02,
01,
04,
01,
05,
10,
F0,
FA,
E0,
18,
F3,
E7,
FC,
02,
F7,
E8,
FE,
0E,
05,
F7,
0F,
06,
18,
0A,
01,
F4,
06,
FC,
FF,
E4,
04,
0C,
0E,
00,
00,
FE,
EA,
FF,
18,
E3,
10,
D3,
16,
E1,
E3,
D1,
FC,
0C,
C7,
02,
FE,
09,
04,
EF,
0A,
FA,
E0,
09,
FE,
02,
19,
F6,
FC,
FB,
0E,
05,
FB,
11,
F8,
02,
D7,
05,
EF,
0E,
02,
00,
EA,
11,
0D,
02,
FF,
FA,
FF,
10,
F2,
02,
EA,
01,
F9,
FF,
FB,
F9,
FE,
01,
F3,
FD,
FC,
15,
F7,
03,
1E,
07,
30,
FD,
F1,
FF,
EE,
11,
02,
E7,
0A,
13,
06,
F1,
F2,
F8,
FB,
FD,
FE,
EB,
02,
0A,
FD,
0A,
E6,
28,
F2,
F2,
05,
E7,
FB,
03,
1D,
FE,
01,
F9,
FA,
ED,
FA,
F7,
F3,
F1,
DA,
DC,
04,
17,
0E,
EF,
15,
07,
08,
10,
03,
10,
07,
00,
FD,
F4,
12,
0C,
FB,
03,
FD,
00,
0E,
05,
03,
DB,
1F,
FD,
11,
EA,
FD,
F8,
04,
0C,
E8,
FD,
07,
10,
0A,
18,
05,
FE,
F2,
13,
E8,
FA,
16,
03,
E2,
FC,
2D,
17,
FD,
07,
FB,
FD,
E7,
10,
EB,
03,
00,
02,
F0,
09,
06,
00,
FF,
DA,
02,
0D,
04,
FD,
F8,
0C,
0B,
0E,
01,
F7,
F0,
FE,
E3,
F2,
01,
19,
03,
01,
E6,
FE,
0E,
04,
F1,
14,
0A,
09,
16,
EA,
0E,
14,
E4,
EA,
E1,
E6,
FB,
06,
03,
F6,
00,
04,
03,
0A,
FD,
0B,
F5,
FE,
0C,
E3,
FC,
00,
30,
F3,
13,
F6,
09,
02,
EB,
FB,
00,
11,
06,
F1,
10,
12,
F1,
2B,
1E,
04,
F6,
09,
0F,
EE,
09,
03,
FF,
F5,
E8,
06,
F8,
03,
FC,
00,
08,
0F,
15,
03,
19,
2A,
F0,
F6,
E3,
EC,
FC,
F3,
01,
00,
F6,
02,
E7,
21,
EE,
06,
00,
FA,
FB,
FF,
16,
09,
13,
FA,
14,
F2,
09,
FB,
FF,
FD,
02,
03,
00,
0D,
FF,
02,
F5,
0D,
EC,
FD,
09,
0D,
28,
02,
DD,
FB,
DE,
FA,
1B,
1C,
13,
F6,
0D,
1A,
E8,
01,
FE,
07,
06,
0A,
00,
0A,
FA,
FE,
F1,
02,
1C,
DA,
14,
FB,
13,
0D,
15,
01,
E3,
D3,
ED,
F5,
13,
D8,
04,
02,
01,
08,
02,
0A,
E8,
EA,
03,
F2,
01,
00,
07,
10,
10,
F8,
FA,
1B,
0E,
00,
FF,
12,
0D,
F5,
FA,
07,
EB,
09,
12,
15,
0A,
01,
0A,
ED,
02,
02,
04,
FA,
F5,
FA,
F4,
FF,
02,
01,
05,
03,
0F,
21,
F7,
0D,
EB,
CC,
F2,
FF,
02,
FF,
D6,
FF,
10,
F7,
0E,
03,
F7,
04,
0E,
1A,
0B,
11,
FB,
00,
00,
FD,
07,
01,
06,
FD,
00,
FA,
FA,
FE,
E8,
F9,
F6,
06,
FC,
02,
06,
FC,
01,
FB,
FD,
07,
FA,
FE,
E8,
18,
1C,
00,
1D,
F8,
F9,
0D,
E7,
20,
FC,
07,
17,
00,
FF,
0A,
FE,
01,
05,
25,
F8,
DE,
FF,
E9,
09,
01,
12,
EF,
02,
02,
06,
09,
F1,
FD,
FE,
02,
FC,
08,
F0,
15,
01,
CD,
11,
06,
08,
FE,
06,
FA,
02,
E2,
F9,
04,
10,
F6,
ED,
05,
E2,
FA,
F3,
1C,
D5,
F2,
13,
03,
0D,
02,
FF,
FE,
05,
FC,
FE,
FB,
FF,
FE,
F1,
FC,
FD,
FE,
10,
0C,
1A,
27,
15,
09,
FD,
DE,
F6,
E6,
FD,
F0,
D6,
01,
07,
02,
E1,
FD,
02,
F5,
FB,
07,
F9,
01,
03,
08,
15,
F8,
01,
EF,
06,
02,
03,
04,
F9,
FA,
DC,
05,
F6,
FE,
E7,
10,
E0,
04,
05,
F1,
F9,
1C,
0A,
01,
F0,
FB,
2B,
07,
F9,
FE,
E0,
E9,
E6,
01,
FC,
12,
21,
03,
FE,
1B,
10,
FE,
FD,
0E,
F8,
F7,
0E,
E9,
0D,
10,
EC,
F3,
EC,
04,
08,
1B,
F0,
10,
02,
07,
FD,
00,
FC,
25,
0A,
F6,
F9,
05,
0B,
04,
F4,
E1,
EB,
D5,
DF,
FC,
0C,
0D,
01,
F6,
14,
04,
0D,
09,
FB,
15,
03,
00,
08,
EF,
F5,
00,
01,
FF,
FF,
F1,
02,
FC,
06,
00,
04,
FE,
0C,
F7,
FC,
1B,
F1,
E5,
F7,
0B,
E0,
F8,
00,
06,
FE,
FE,
ED,
0C,
05,
FD,
06,
13,
EE,
F0,
0A,
EF,
FB,
0B,
06,
F1,
FC,
FF,
0D,
FD,
10,
05,
E3,
F9,
12,
F8,
D8,
06,
00,
F1,
04,
FC,
0B,
18,
04,
0F,
F8,
FF,
E4,
F5,
06,
FB,
FA,
F5,
09,
07,
F1,
0C,
02,
10,
F1,
01,
FE,
0A,
F4,
FE,
F9,
09,
FB,
E3,
0D,
DD,
01,
07,
05,
04,
0E,
01,
FF,
0A,
08,
F7,
FF,
07,
FE,
EF,
F9,
11,
F4,
F2,
00,
F9,
02,
FE,
09,
F0,
F3,
BA,
F8,
F3,
FA,
09,
08,
FF,
02,
08,
0B,
0C,
10,
00,
E7,
E2,
00,
F3,
DA,
E9,
06,
02,
02,
F0,
FD,
06,
0B,
03,
FE,
FF,
1A,
01,
0B,
12,
F9,
0E,
FE,
21,
08,
F4,
00,
EE,
05,
00,
EE,
02,
FC,
EF,
0B,
08,
C6,
E3,
12,
F1,
01,
06,
10,
F6,
0D,
FC,
06,
08,
08,
03,
EE,
F4,
06,
09,
E1,
02,
DD,
0D,
EA,
FE,
D7,
04,
F5,
06,
F9,
02,
10,
F5,
09,
16,
0F,
F2,
04,
F9,
EF,
FE,
FC,
04,
E2,
FF,
0C,
00,
00,
FE,
F8,
0A,
FA,
05,
06,
00,
08,
E8,
03,
FC,
11,
0B,
F0,
FB,
EB,
FF,
FC,
01,
03,
00,
F6,
13,
F1,
FA,
04,
01,
05,
FD,
10,
ED,
E5,
01,
F7,
FC,
07,
16,
0C,
F3,
0A,
FD,
03,
02,
F6,
10,
FE,
0D,
0E,
04,
0E,
FA,
E7,
03,
00,
07,
FC,
FB,
05,
FD,
FF,
00,
FC,
FF,
05,
14,
F7,
0B,
04,
09,
F9,
12,
00,
EE,
0A,
FE,
ED,
F2,
F0,
E0,
F8,
01,
06,
E1,
05,
ED,
07,
15,
FE,
F7,
12,
F8,
02,
0B,
09,
FF,
E7,
ED,
17,
06,
06,
FA,
15,
01,
20,
04,
DC,
03,
F9,
FE,
F5,
01,
06,
FA,
02,
E7,
03,
FA,
06,
09,
04,
FF,
03,
FA,
CE,
02,
FD,
FE,
FD,
FF,
F7,
01,
00,
F9,
11,
02,
0B,
02,
19,
01,
F7,
FE,
00,
08,
FF,
E7,
03,
FA,
05,
19,
0D,
E2,
00,
0B,
0B,
0B,
05,
01,
F4,
EC,
FD,
FD,
02,
07,
06,
0C,
13,
FE,
09,
03,
05,
07,
12,
09,
E4,
0D,
00,
FE,
09,
F2,
EA,
00,
FD,
FC,
00,
09,
00,
00,
03,
01,
FD,
F7,
FF,
02,
F8,
09,
F3,
06,
F7,
06,
02,
1B,
0A,
FF,
F1,
FE,
02,
E7,
09,
08,
F2,
FB,
0C,
EB,
FC,
08,
F4,
00,
18,
F0,
FE,
08,
FC,
FF,
EE,
F5,
0A,
0E,
FC,
06,
13,
FE,
0B,
FD,
EB,
FB,
F9,
05,
04,
05,
F5,
03,
F5,
FB,
03,
EF,
0A,
F6,
09,
F1,
00,
F7,
FA,
02,
02,
F9,
EE,
02,
E8,
F2,
FD,
F1,
FF,
04,
FF,
FA,
00,
FA,
0A,
03,
FF,
F8,
FE,
E4,
04,
06,
02,
00,
FA,
14,
0C,
06,
0D,
03,
F9,
03,
E3,
FB,
0A,
0B,
04,
06,
02,
FC,
0C,
01,
02,
0C,
05,
07,
0A,
0D,
FD,
0B,
FB,
F9,
0D,
F8,
08,
FF,
04,
F1,
F9,
03,
05,
03,
00,
01,
FD,
F6,
FD,
FA,
FF,
0E,
F9,
F6,
FF,
05,
FD,
12,
FB,
FC,
05,
0A,
07,
F9,
F2,
01,
05,
FB,
0C,
F0,
E9,
04,
EA,
FC,
07,
EE,
F8,
0C,
F4,
FD,
E5,
FF,
FA,
12,
F8,
02,
0C,
05,
FC,
FF,
F8,
0D,
FE,
0B,
FC,
02,
EC,
0B,
FE,
FB,
15,
D0,
04,
FB,
0B,
07,
FB,
09,
08,
FC,
08,
00,
F9,
FE,
D9,
08,
FE,
F7,
06,
FD,
FC,
0D,
08,
F4,
09,
F6,
EA,
F4,
F9,
FA,
FF,
03,
01,
0E,
F5,
04,
0B,
EF,
E4,
08,
F8,
00,
F7,
E4,
05,
02,
0A,
0C,
F7,
FC,
01,
FE,
00,
07,
FF,
0C,
01,
01,
13,
FF,
F9,
00,
08,
F7,
F7,
FC,
FC,
05,
02,
F6,
0A,
00,
04,
01,
F8,
FA,
FF,
F6,
05,
04,
FA,
0C,
E2,
04,
03,
FF,
FF,
FD,
E1,
08,
F7,
DC,
F6,
FB,
F9,
06,
F6,
F8,
F9,
08,
E4,
FD,
02,
DC,
07,
04,
FB,
FC,
DE,
00,
FF,
0B,
F6,
00,
11,
09,
09,
00,
FA,
FC,
F9,
11,
02,
00,
F5,
0B,
0A,
05,
15,
FB,
F6,
FE,
0C,
03,
FC,
01,
FB,
09,
FE,
F9,
FE,
00,
CC,
05,
EC,
01,
09,
0B,
0C,
09,
F7,
02,
FE,
0A,
0E,
04,
FB,
F8,
FD,
04,
01,
09,
F5,
F0,
FC,
E8,
DB,
FA,
FE,
04,
FC,
00,
F1,
F2,
07,
0C,
E3,
FA,
FB,
03,
01,
00,
04,
FE,
05,
F9,
FC,
06,
03,
F9,
F9,
FB,
F4,
03,
FE,
F7,
06,
EB,
02,
FB,
02,
04,
FF,
FF,
04,
FC,
FE,
FD,
F9,
F3,
E8,
F1,
FE,
EC,
F1,
FF,
F7,
04,
E3,
E3,
F7,
F6,
FB,
0D,
FC,
06,
05,
08,
FB,
F7,
01,
E8,
FF,
FA,
07,
FE,
DD,
F1,
14,
F1,
F6,
FC,
FC,
F8,
05,
03,
EF,
FA,
FA,
FD,
FE,
00,
00,
F8,
FC,
FE,
07,
FC,
00,
07,
00,
F8,
01,
FE,
FF,
04,
07,
04,
00,
FF,
DC,
FF,
FB,
05,
FF,
FD,
FE,
FF,
F8,
11,
F7,
05,
0E,
09,
F6,
0D,
01,
FF,
00,
07,
FB,
0C,
FD,
E5,
EB,
FF,
FE,
FC,
FD,
09,
F5,
06,
0B,
15,
FE,
07,
00,
0D,
FF,
0C,
00,
EC,
01,
F6,
02,
02,
01,
01,
FD,
FD,
05,
FB,
02,
FD,
04,
EF,
F3,
03,
03,
04,
0C,
00,
01,
02,
F7,
F9,
02,
F4,
00,
F2,
00,
FE,
02,
03,
00,
EE,
E4,
DB,
04,
FC,
16,
0F,
FD,
FB,
01,
00,
FE,
FA,
02,
E0,
FB,
00,
0C,
FC,
EC,
FF,
FC,
05,
FF,
FB,
F8,
FD,
F2,
FC,
FF,
00,
F8,
FC,
08,
FB,
FD,
07,
E6,
FE,
06,
07,
FC,
F2,
FB,
0C,
04,
03,
04,
02,
FA,
06,
01,
FE,
E3,
F7,
FA,
FA,
F9,
FC,
02,
03,
F7,
0C,
04,
02,
00,
F5,
FD,
0A,
00,
FE,
02,
08,
FF,
05,
0F,
03,
F2,
01,
FA,
FC,
06,
0C,
01,
FB,
FA,
09,
00,
F4,
F4,
0A,
F7,
08,
FF,
F8,
08,
FD,
FB,
F5,
08,
F4,
01,
00,
0E,
00,
02,
F9,
0A,
05,
FF,
01,
FF,
00,
00,
FC,
0B,
FD,
F6,
FF,
05,
F3,
0F,
F4,
FF,
F9,
FD,
02,
06,
F9,
F5,
04,
04,
F5,
06,
FD,
FD,
F9,
0A,
07,
01,
0B,
FB,
F6,
F8,
FE,
F8,
FC,
FD,
03,
05,
F2,
FC,
02,
F1,
FB,
01,
00,
06,
F7,
FF,
02,
02,
FB,
08,
08,
EA,
F7,
0B,
07,
F8,
EC,
F3,
0D,
FF,
0B,
F8,
05,
04,
FC,
06,
03,
02,
F5,
F2,
00,
FD,
02,
03,
0B,
F9,
01,
02,
00,
FC,
FB,
03,
09,
04,
07,
FE,
00,
00,
01,
06,
0A,
EF,
FF,
FA,
00,
09,
01,
11,
FA,
FE,
F7,
05,
F3,
F7,
05,
03,
FD,
06,
F4,
05,
F5,
FD,
FC,
0E,
FF,
0C,
11,
01,
FB,
FD,
00,
EA,
FD,
FC,
FB,
04,
FE,
FE,
F7,
02,
FD,
F8,
12,
FA,
F9,
0A,
F5,
03,
FF,
0A,
03,
00,
F5,
ED,
0B,
0D,
03,
10,
F4,
FF,
EF,
FA,
06,
08,
03,
FE,
FF,
02,
00,
FD,
02,
FD,
FF,
FF,
EA,
03,
09,
F0,
FA,
09,
FE,
FF,
F9,
F7,
01,
F5,
FF,
0A,
05,
F9,
EE,
09,
FC,
F7,
F8,
F9,
16,
03,
07,
0E,
02,
06,
FF,
04,
FD,
0D,
F4,
09,
F5,
F6,
0D,
02,
02,
F2,
F3,
0F,
FC,
FE,
F8,
07,
FF,
FF,
07,
FE,
03,
0A,
FF,
12,
FF,
0C,
09,
04,
FE,
FE,
F1,
02,
FD,
02,
02,
F4,
03,
03,
FE,
05,
F1,
04,
00,
03,
F2,
05,
FE,
0D,
04,
07,
0A,
05,
01,
00,
E9,
F5,
00,
FE,
02,
FC,
FC,
02,
F5,
0C,
06,
F8,
0C,
00,
04,
08,
EE,
FF,
F3,
09,
03,
0C,
F9,
ED,
0B,
11,
02,
FE,
03,
F6,
F6,
FD,
08,
F5,
FE,
03,
FC,
FF,
FD,
FE,
FE,
04,
07,
02,
01,
00,
06,
02,
03,
0C,
FD,
08,
F9,
05,
00,
F8,
FC,
05,
00,
F9,
05,
FB,
01,
F5,
F5,
EE,
10,
FB,
FE,
FD,
08,
05,
03,
0E,
02,
0E,
FC,
F1,
FF,
E8,
07,
04,
03,
F9,
FB,
0D,
FF,
F8,
FE,
02,
FE,
FC,
06,
01,
06,
07,
FC,
0B,
03,
05,
07,
04,
FD,
0A,
F6,
09,
06,
07,
FC,
03,
0B,
04,
F6,
FC,
F1,
00,
03,
01,
FB,
F7,
02,
0A,
F6,
F8,
03,
FE,
03,
01,
02,
EF,
04,
FB,
FD,
00,
FF,
FE,
E9,
0F,
FC,
06,
04,
FD,
FB,
F5,
F4,
02,
F2,
FF,
FD,
FD,
00,
FD,
0F,
0C,
07,
FF,
FD,
18,
F4,
08,
F5,
EF,
F5,
02,
0D,
F4,
0A,
06,
FD,
FB,
01,
F9,
FA,
F9,
01,
EE,
03,
06,
01,
F7,
04,
08,
F4,
FC,
FD,
06,
F5,
EA,
0B,
FF,
F7,
06,
02,
F9,
0F,
00,
F0,
FF,
03,
07,
08,
FF,
FD,
FB,
08,
FD,
04,
01,
00,
01,
00,
F3,
01,
0C,
03,
06,
03,
FE,
F8,
03,
02,
01,
03,
05,
0A,
05,
04,
FB,
08,
00,
FC,
0D,
07,
09,
0C,
04,
F0,
0E,
06,
02,
EC,
FD,
F7,
FC,
FF,
0C,
F0,
EE,
00,
09,
F6,
F9,
09,
F8,
03,
FE,
21,
F5,
05,
0D,
FF,
04,
FC,
00,
E9,
07,
F5,
FB,
FF,
FA,
08,
F7,
F3,
FF,
F5,
00,
FC,
FD,
F8,
F9,
0B,
0D,
0D,
FC,
F9,
03,
05,
09,
E6,
F3,
01,
02,
1A,
F9,
02,
07,
02,
F5,
05,
F2,
01,
F9,
F9,
F5,
F7,
10,
FC,
FB,
06,
FE,
F3,
FD,
04,
08,
FD,
E4,
02,
FC,
F4,
F9,
F7,
F8,
08,
FE,
E2,
F9,
FE,
06,
0C,
FB,
FB,
EF,
0B,
F9,
07,
FC,
FD,
FF,
FC,
DE,
09,
12,
FB,
12,
05,
F8,
01,
03,
07,
FC,
FE,
0D,
0C,
02,
01,
0F,
01,
FB,
04,
FA,
F5,
06,
00,
FA,
FA,
0C,
FE,
04,
F0,
FF,
F7,
06,
07,
05,
03,
F0,
0C,
02,
02,
0A,
F7,
F8,
02,
FE,
E8,
FD,
07,
FC,
01,
FC,
04,
FC,
E7,
01,
06,
04,
00,
03,
04,
03,
FB,
FF,
01,
01,
00,
FF,
02,
FB,
05,
FE,
00,
EF,
FF,
0F,
0A,
FC,
EA,
01,
FA,
FF,
0E,
01,
0C,
FA,
01,
00,
00,
FA,
FB,
F5,
F8,
FA,
05,
09,
00,
07,
FF,
01,
FA,
FD,
FD,
FE,
FE,
F3,
05,
F9,
03,
FB,
FE,
FA,
0C,
FF,
FF,
00,
FC,
0C,
08,
FE,
FE,
FE,
03,
F5,
F3,
06,
F2,
02,
04,
00,
FD,
0B,
06,
01,
FC,
FC,
FF,
01,
09,
FF,
00,
05,
FD,
07,
03,
02,
F6,
FA,
01,
04,
F6,
05,
01,
FC,
05,
03,
05,
FE,
FF,
02,
F8,
0A,
02,
FC,
00,
FC,
09,
0D,
F9,
01,
FC,
F9,
00,
FF,
FA,
F3,
0A,
00,
FD,
FC,
FC,
FE,
E8,
0E,
09,
F2,
FE,
F8,
FC,
FF,
F6,
FD,
02,
FF,
00,
0F,
F4,
0A,
F4,
03,
02,
F5,
02,
0E,
00,
FC,
FB,
F2,
F6,
03,
0B,
F8,
09,
0C,
01,
F9,
FF,
FD,
FB,
FB,
F2,
F9,
FE,
0A,
FE,
07,
01,
FA,
F0,
FC,
02,
03,
04,
F7,
FE,
05,
02,
F8,
00,
FA,
12,
FB,
06,
07,
FE,
0B,
FD,
03,
FF,
F7,
07,
FD,
FE,
00,
FA,
02,
F8,
FD,
EE,
07,
08,
F8,
FA,
03,
F7,
FD,
07,
FE,
FB,
05,
FC,
09,
00,
F5,
09,
FD,
04,
00,
03,
FF,
FC,
02,
FA,
FF,
00,
03,
FF,
FE,
09,
01,
F2,
07,
FD,
01,
00,
FB,
EF,
FE,
FA,
F6,
FE,
01,
05,
F2,
07,
00,
FD,
03,
FD,
FB,
FD,
09,
00,
EF,
00,
FA,
08,
04,
F4,
FD,
01,
00,
00,
07,
F6,
FB,
19,
02,
FB,
02,
FD,
F6,
FF,
FC,
F2,
F3,
01,
00,
F9,
FE,
FF,
02,
FA,
09,
F0,
00,
00,
F5,
F5,
FC,
FF,
FD,
FE,
F3,
F6,
FC,
00,
02,
FB,
07,
05,
FC,
FD,
15,
F8,
F8,
F8,
FB,
06,
01,
FE,
00,
F9,
F8,
F6,
F8,
FE,
F9,
FF,
10,
F4,
F5,
F0,
FF,
06,
F1,
FA,
04,
07,
01,
FD,
0E,
FB,
FB,
FF,
FD,
EF,
07,
FD,
04,
F4,
0C,
0B,
FC,
01,
11,
07,
FB,
F1,
07,
0A,
04,
01,
FB,
03,
F7,
0B,
FB,
EE,
08,
FE,
F8,
FF,
FA,
F6,
FB,
F6,
10,
01,
00,
03,
FF,
FA,
FD,
04,
01,
02,
08,
FF,
FE,
09,
F9,
04,
F5,
08,
02,
FD,
03,
00,
FD,
FC,
0E,
EE,
F5,
07,
F3,
FB,
01,
00,
FD,
FC,
0B,
05,
FC,
04,
F4,
F4,
F5,
FF,
02,
02,
12,
EE,
03,
05,
FA,
01,
FC,
FD,
00,
FB,
EE,
FB,
FC,
FF,
11,
FF,
03,
05,
F4,
08,
14,
05,
F7,
F4,
F6,
00,
02,
03,
FB,
F8,
05,
F1,
F7,
01,
EE,
F5,
0E,
F1,
EF,
F7,
F5,
01,
EB,
03,
0A,
03,
04,
FD,
02,
FF,
FF,
08,
FF,
F7,
02,
05,
00,
F7,
ED,
00,
01,
FC,
FE,
FB,
FC,
F4,
0D,
16,
F6,
07,
F1,
FE,
03,
00,
FF,
E6,
0A,
FB,
FC,
07,
01,
FF,
FA,
F4,
09,
04,
FC,
FC,
05,
F6,
F7,
01,
FD,
FF,
FF,
04,
01,
09,
FE,
FD,
F9,
FC,
EE,
F6,
02,
F4,
01,
FD,
01,
F1,
F4,
F7,
F4,
FE,
FC,
0B,
F3,
FC,
0C,
0E,
FB,
FB,
02,
F7,
FE,
F4,
02,
00,
ED,
EA,
05,
FE,
F8,
01,
05,
F7,
F9,
FD,
F0,
04,
F9,
FC,
FF,
02,
03,
06,
01,
04,
12,
F9,
03,
F9,
FB,
00,
FD,
02,
05,
FC,
04,
F5,
FF,
FD,
E3,
00,
11,
F7,
F7,
F3,
F7,
05,
DD,
01,
0C,
F8,
F9,
00,
FC,
07,
04,
0A,
FD,
FC,
EE,
FF,
F9,
06,
ED,
06,
F9,
FC,
FE,
F3,
01,
02,
0A,
03,
FD,
F9,
FC,
05,
F8,
03,
02,
EF,
09,
FB,
06,
03,
F8,
FC,
04,
F8,
F3,
02,
03,
03,
0A,
FE,
06,
02,
FD,
02,
FB,
F0,
00,
0E,
FB,
08,
F6,
0A,
EE,
01,
FB,
FC,
FC,
FD,
FD,
07,
14,
E7,
FD,
FA,
F6,
FF,
EB,
0C,
FB,
FF,
FA,
FA,
06,
05,
09,
F1,
F7,
FB,
F1,
FA,
12,
F4,
F5,
FB,
05,
F8,
F5,
02,
06,
F4,
FF,
03,
00,
FD,
FC,
09,
F9,
F8,
0D,
F9,
EF,
F4,
0A,
FC,
03,
01,
FF,
08,
FC,
06,
F1,
FD,
CD,
FE,
F9,
06,
F7,
F3,
FD,
0C,
EC,
0B,
00,
07,
F9,
02,
FE,
FF,
FE,
06,
FC,
F4,
EE,
FA,
F1,
0E,
00,
12,
05,
FC,
EC,
F7,
0F,
FD,
0A,
FC,
00,
F8,
00,
FB,
FE,
02,
02,
FF,
08,
FA,
0D,
FC,
F8,
FD,
10,
03,
FA,
FD,
02,
05,
FF,
08,
05,
03,
FE,
02,
10,
FF,
04,
01,
FB,
0F,
04,
04,
F6,
04,
00,
0C,
F2,
FE,
EE,
FE,
0E,
E7,
FB,
03,
FE,
03,
FA,
0F,
E4,
FA,
09,
FC,
04,
08,
FC,
F7,
FD,
FC,
EE,
FF,
01,
FD,
01,
F7,
01,
00,
EB,
FE,
0C,
06,
F9,
0E,
03,
FE,
01,
F6,
FD,
FD,
02,
EF,
F9,
06,
0B,
03,
03,
06,
FB,
02,
0B,
03,
FA,
FE,
D7,
FF,
F7,
FC,
01,
FF,
02,
08,
F5,
06,
06,
F8,
02,
07,
02,
FB,
00,
04,
FF,
FC,
F5,
FB,
09,
0E,
05,
10,
07,
FE,
DF,
04,
08,
00,
08,
F6,
0F,
0B,
09,
FD,
08,
00,
F8,
0A,
0C,
0A,
FA,
06,
F9,
08,
0E,
F7,
F1,
01,
FF,
F2,
FE,
0A,
05,
00,
02,
03,
12,
09,
0D,
F2,
FA,
11,
0A,
F2,
05,
01,
FE,
19,
FB,
00,
0D,
FB,
02,
FF,
F1,
07,
00,
03,
0B,
F5,
F3,
F3,
04,
EB,
FD,
00,
EE,
0A,
FE,
FE,
FD,
F9,
F8,
0A,
02,
F9,
0A,
FF,
F9,
01,
02,
0C,
FD,
FF,
03,
FE,
E4,
00,
FD,
FE,
FA,
DD,
00,
06,
11,
FD,
03,
F4,
F1,
02,
05,
F0,
F5,
01,
CE,
04,
F7,
F7,
01,
FF,
FF,
06,
FF,
F9,
07,
F7,
F2,
FC,
02,
F0,
02,
10,
02,
FA,
F3,
13,
0B,
07,
08,
FC,
01,
FE,
01,
FA,
FF,
07,
F4,
E6,
12,
09,
15,
EA,
06,
EF,
04,
09,
0B,
1C,
F5,
0D,
F6,
0D,
15,
EC,
E4,
FF,
FE,
00,
09,
09,
FF,
FD,
FD,
FE,
FC,
01,
19,
E9,
FE,
07,
09,
06,
01,
13,
FE,
1D,
FE,
FD,
FC,
FB,
1E,
FB,
FA,
FF,
E2,
FE,
FB,
FD,
06,
FE,
00,
F9,
0F,
15,
F6,
04,
03,
FE,
F0,
FB,
FA,
09,
02,
FA,
0B,
FC,
05,
FC,
06,
0E,
02,
01,
03,
FE,
E3,
FD,
02,
12,
F8,
F7,
0B,
03,
08,
04,
01,
FB,
BA,
06,
00,
05,
FB,
02,
DD,
05,
EC,
11,
0D,
03,
01,
0C,
FE,
F6,
0A,
01,
F1,
F9,
FA,
ED,
FF,
FD,
FE,
09,
FF,
08,
0A,
0F,
0B,
F1,
F1,
02,
21,
15,
FB,
EE,
F5,
E2,
03,
0A,
07,
F3,
02,
FC,
0A,
04,
10,
25,
F2,
06,
FF,
08,
DC,
ED,
03,
03,
FE,
FF,
06,
06,
FA,
FE,
01,
03,
07,
0D,
1D,
F5,
FC,
F5,
11,
0D,
F9,
F0,
04,
09,
F8,
FD,
11,
F6,
0A,
F6,
FC,
07,
E5,
F8,
03,
FD,
22,
00,
09,
FE,
0B,
0C,
F7,
06,
0A,
01,
F9,
F5,
05,
FD,
F0,
FC,
E1,
01,
F9,
FF,
07,
14,
05,
FF,
FE,
02,
01,
02,
03,
0E,
FF,
04,
0E,
03,
F2,
EF,
FE,
0D,
DB,
0A,
FF,
06,
FD,
FE,
F5,
FA,
F1,
02,
F9,
F2,
01,
F8,
0D,
F4,
F8,
02,
02,
EF,
EE,
E7,
01,
FE,
FC,
19,
06,
02,
F0,
FC,
F5,
F3,
FA,
00,
09,
F7,
FD,
F5,
E2,
09,
08,
E6,
05,
0D,
FC,
E2,
0E,
0A,
F9,
1F,
0F,
0C,
0D,
05,
F4,
F0,
09,
FC,
03,
E8,
04,
FC,
F7,
04,
FE,
04,
FB,
FF,
26,
E9,
F7,
E0,
07,
F5,
DF,
DC,
FE,
15,
CE,
03,
02,
03,
06,
F6,
03,
EE,
F3,
09,
0A,
02,
1A,
F0,
FB,
FD,
08,
0A,
0A,
16,
F8,
FD,
EF,
FA,
F3,
0D,
01,
00,
F9,
0E,
F5,
FD,
05,
08,
0A,
02,
02,
F8,
E1,
F5,
EE,
02,
F4,
F1,
03,
07,
FA,
09,
FF,
0E,
01,
F9,
1D,
0D,
17,
01,
F4,
00,
F4,
0C,
10,
EB,
05,
F4,
10,
DC,
F5,
EC,
E1,
FA,
F9,
E2,
FC,
06,
04,
06,
E7,
32,
F9,
E3,
0C,
E3,
FB,
02,
15,
F6,
0D,
F0,
F2,
FC,
03,
07,
FC,
FA,
EC,
DC,
0B,
12,
F3,
00,
10,
0B,
07,
07,
0B,
06,
06,
FF,
FF,
09,
0E,
0A,
EB,
02,
03,
03,
FA,
03,
09,
EB,
08,
F7,
E5,
E7,
DC,
D7,
FC,
0E,
F9,
FE,
09,
11,
F7,
1A,
04,
FE,
0C,
19,
F6,
F4,
0F,
F8,
EA,
F6,
12,
1B,
F7,
18,
05,
FD,
EA,
FE,
E9,
04,
F4,
04,
FA,
10,
05,
00,
0A,
E7,
07,
07,
F7,
FE,
CD,
FD,
1C,
0A,
EF,
F9,
F3,
0E,
FA,
0D,
FD,
07,
FF,
F9,
0A,
0D,
F7,
01,
F6,
FE,
01,
FC,
08,
EE,
09,
03,
F3,
DB,
EA,
DC,
FF,
FD,
05,
F5,
01,
01,
FF,
FF,
F2,
1A,
15,
D6,
0F,
D8,
F1,
FF,
1C,
F6,
13,
F8,
FD,
04,
0A,
FB,
1A,
09,
EF,
B5,
12,
17,
F6,
F2,
31,
0B,
06,
