memory_initialization_radix=16;
memory_initialization_vector=
4F,
14,
F0,
F4,
1B,
0D,
30,
EC,
FD,
F1,
D2,
FF,
02,
05,
1B,
2E,
00,
20,
21,
2F,
04,
3B,
07,
0B,
18,
1D,
20,
D8,
FD,
34,
21,
13,
0F,
29,
EC,
21,
E5,
02,
09,
D5,
0C,
F6,
1D,
1D,
47,
2B,
03,
E9,
1F,
27,
E8,
2A,
DB,
14,
0D,
17,
D4,
EA,
0F,
29,
EF,
F5,
EE,
D4,
29,
26,
F9,
16,
09,
14,
23,
EC,
44,
EE,
1F,
EF,
02,
F7,
2E,
34,
19,
07,
F8,
DA,
1E,
27,
15,
30,
E9,
F6,
CB,
EC,
24,
F0,
06,
EB,
EF,
2A,
07,
F7,
32,
10,
2D,
0A,
E6,
00,
FE,
13,
D9,
05,
FC,
01,
F4,
3E,
0A,
FD,
13,
F6,
D1,
0C,
19,
35,
20,
EB,
EB,
0B,
39,
0C,
1E,
1A,
EA,
22,
1A,
06,
F9,
02,
ED,
F7,
D9,
DF,
F5,
11,
0A,
3D,
24,
02,
30,
45,
ED,
0E,
FC,
02,
25,
0C,
18,
21,
D7,
1A,
BC,
12,
1D,
2C,
07,
FD,
EB,
EB,
09,
0A,
14,
0C,
1D,
0C,
DD,
2D,
FC,
EB,
EA,
F7,
F3,
39,
E7,
01,
3C,
1E,
0C,
CB,
2C,
07,
05,
FB,
1D,
D6,
2D,
13,
09,
EE,
15,
13,
19,
F8,
23,
1D,
06,
0E,
02,
FD,
F5,
21,
10,
F2,
F2,
F5,
08,
0F,
29,
EE,
11,
E7,
13,
1D,
07,
27,
FD,
1D,
E4,
0E,
DB,
EC,
05,
1E,
E0,
FB,
FB,
F6,
11,
EA,
33,
0E,
06,
01,
1C,
E8,
DE,
23,
F7,
DF,
F5,
37,
0C,
F6,
FE,
22,
CA,
FF,
DE,
EF,
FB,
F7,
F7,
10,
F3,
EE,
F2,
09,
FB,
F5,
F4,
09,
ED,
FB,
F0,
10,
11,
F3,
13,
FB,
F1,
13,
EB,
FC,
14,
0B,
09,
0C,
F1,
08,
F7,
FF,
F6,
EF,
FD,
FF,
F0,
08,
FC,
14,
01,
FB,
12,
01,
05,
00,
09,
FC,
0E,
0F,
06,
FD,
F5,
03,
10,
FD,
F3,
0E,
EF,
FB,
07,
04,
ED,
EF,
04,
1C,
08,
EE,
F4,
D7,
F6,
FE,
E3,
07,
F6,
F9,
16,
27,
11,
E1,
E6,
E2,
DE,
F2,
20,
E6,
ED,
FF,
13,
21,
0F,
DC,
D0,
FC,
D4,
09,
FA,
EE,
2D,
E3,
24,
ED,
EA,
14,
12,
EF,
CF,
04,
15,
08,
16,
0E,
F6,
C5,
10,
12,
BC,
12,
02,
C9,
20,
FB,
FC,
0A,
0B,
ED,
14,
0F,
12,
2F,
FE,
32,
DB,
2A,
0B,
F8,
09,
00,
43,
F4,
EB,
DD,
EF,
42,
15,
FF,
E8,
00,
05,
00,
17,
10,
20,
CA,
EA,
1D,
E2,
EE,
ED,
FD,
28,
0A,
E1,
0B,
CE,
E6,
0E,
31,
08,
10,
E7,
4F,
06,
14,
1E,
17,
12,
EB,
14,
F4,
E9,
1C,
23,
0E,
1E,
CC,
02,
15,
ED,
04,
1B,
FE,
07,
FF,
F3,
00,
F9,
FE,
EB,
13,
D9,
22,
FD,
FC,
0B,
E6,
F6,
03,
07,
FC,
D2,
FC,
17,
F5,
F2,
16,
D2,
04,
00,
F3,
EA,
C3,
DA,
FC,
E4,
DB,
06,
FB,
FC,
0D,
F6,
17,
E4,
DD,
BE,
0C,
FE,
F0,
1B,
FA,
14,
FB,
F2,
01,
1E,
09,
FC,
F9,
E2,
18,
F7,
07,
F6,
01,
D9,
FC,
2A,
1D,
1A,
E2,
D5,
E4,
21,
20,
41,
20,
2B,
BF,
29,
FF,
0C,
28,
E4,
20,
FF,
26,
E3,
10,
D6,
0B,
D3,
12,
27,
E9,
05,
07,
EE,
F9,
D4,
21,
38,
FD,
0C,
F8,
E7,
08,
0C,
1E,
0A,
05,
09,
0E,
1A,
10,
E7,
F8,
05,
33,
BA,
08,
F9,
23,
FE,
1E,
2F,
FE,
E2,
F4,
0D,
E5,
05,
EB,
E8,
D7,
09,
07,
02,
ED,
D7,
E5,
FE,
00,
F5,
EC,
E8,
18,
FC,
E6,
15,
1A,
E6,
E0,
16,
DA,
FF,
DB,
F6,
25,
31,
04,
E7,
07,
42,
F9,
E1,
FD,
F5,
F2,
17,
0A,
EB,
09,
B1,
0F,
09,
F5,
E2,
ED,
00,
E6,
03,
FE,
06,
F4,
EA,
E0,
06,
F5,
F6,
02,
0C,
FD,
1C,
00,
F6,
FB,
27,
A9,
08,
C6,
04,
10,
F9,
02,
05,
E1,
1F,
04,
E5,
B7,
E2,
E1,
DC,
03,
E9,
06,
1A,
FA,
F5,
F3,
FC,
0F,
09,
F6,
D2,
02,
15,
14,
0C,
FA,
C5,
16,
06,
1B,
F4,
11,
FB,
17,
ED,
48,
EE,
F3,
DB,
DD,
EB,
E2,
F0,
F4,
0B,
F9,
D2,
F1,
E8,
1F,
FB,
EA,
F3,
17,
F0,
E1,
E3,
1A,
FE,
0F,
F5,
0D,
1A,
17,
0B,
2B,
C2,
CE,
C9,
08,
EE,
07,
11,
10,
D3,
EA,
EA,
CD,
EB,
BC,
06,
17,
11,
EF,
0B,
AC,
F6,
F3,
24,
05,
01,
29,
F7,
E0,
21,
13,
F5,
CD,
E8,
EC,
34,
02,
14,
D6,
F8,
00,
28,
DE,
DD,
EC,
0B,
0A,
18,
DE,
D2,
F6,
0E,
F2,
04,
09,
00,
D0,
D7,
D9,
3F,
EF,
40,
1A,
28,
05,
F8,
F1,
EB,
08,
DF,
FC,
15,
10,
07,
1F,
F3,
05,
F7,
04,
2B,
FB,
0D,
FD,
FD,
E0,
01,
1B,
19,
F0,
05,
11,
F0,
0C,
B9,
18,
F6,
0D,
12,
1D,
0F,
FB,
2B,
27,
F0,
36,
08,
00,
01,
FD,
FB,
1F,
1A,
DF,
F2,
03,
08,
09,
0C,
C6,
EA,
FA,
0E,
12,
01,
0D,
E3,
1A,
FF,
EF,
1B,
FA,
0E,
EC,
13,
E5,
F8,
15,
EA,
0D,
E9,
14,
08,
10,
16,
13,
F8,
13,
13,
22,
0B,
D3,
E8,
23,
D0,
F7,
CE,
F9,
F1,
0E,
FD,
0D,
DB,
F6,
1E,
04,
22,
F1,
00,
EF,
07,
E6,
12,
FA,
1F,
D9,
15,
F3,
FE,
EA,
ED,
09,
F9,
FD,
FF,
EF,
0B,
05,
E5,
ED,
EC,
09,
17,
F6,
10,
0F,
EF,
AD,
DD,
EF,
F1,
13,
EB,
00,
01,
0A,
04,
0F,
21,
07,
08,
09,
EB,
F7,
F3,
F8,
FD,
0D,
FD,
F9,
F2,
0F,
EF,
01,
F5,
06,
FE,
F9,
E7,
F0,
FE,
E8,
D5,
09,
FD,
F8,
FA,
FF,
01,
FE,
DC,
09,
07,
0A,
ED,
F3,
E9,
FB,
0E,
01,
F8,
FC,
E3,
08,
EF,
09,
F8,
F7,
1C,
E3,
F9,
EC,
FC,
FD,
08,
E2,
ED,
FB,
00,
1A,
06,
15,
04,
0A,
22,
04,
04,
F5,
09,
F6,
03,
05,
E8,
F5,
E9,
0E,
F3,
F0,
E2,
17,
24,
00,
0B,
FA,
04,
08,
FB,
E9,
0A,
01,
EC,
FD,
EF,
0B,
F1,
04,
06,
F0,
D8,
FB,
0D,
08,
31,
CA,
16,
F0,
04,
01,
02,
F9,
F8,
1B,
02,
0E,
E7,
F5,
EB,
DE,
FC,
23,
FF,
36,
EA,
06,
F3,
0D,
EB,
22,
02,
10,
EB,
03,
02,
F2,
03,
FA,
F9,
FA,
20,
FF,
EA,
F7,
29,
10,
10,
CB,
FF,
E3,
F3,
04,
E3,
0E,
FF,
E9,
D0,
0C,
D0,
FE,
F6,
F8,
EA,
F8,
1E,
0A,
E8,
06,
02,
FC,
21,
17,
EB,
04,
EA,
19,
FC,
19,
EC,
EF,
1C,
16,
14,
E4,
DB,
F6,
FC,
F1,
0A,
0D,
05,
02,
F1,
1D,
EF,
FF,
06,
EE,
07,
ED,
FB,
F2,
FB,
FD,
EE,
03,
F9,
10,
F6,
E9,
ED,
0F,
D5,
F4,
00,
F3,
FA,
C8,
F0,
E1,
18,
FA,
16,
14,
EB,
27,
2B,
EC,
F1,
E6,
22,
F2,
05,
11,
24,
EC,
15,
00,
21,
EF,
03,
00,
C6,
08,
33,
F6,
2B,
FA,
10,
03,
FB,
FB,
E7,
2A,
F5,
FC,
F1,
F7,
09,
0B,
08,
2B,
DE,
1D,
F5,
01,
14,
0C,
17,
F3,
0B,
ED,
19,
F6,
FB,
E8,
0F,
E8,
13,
0C,
22,
17,
14,
05,
0A,
0B,
03,
0E,
0A,
DD,
1E,
0A,
04,
FB,
0B,
FB,
1D,
0A,
E6,
D9,
DB,
CB,
13,
F2,
DB,
ED,
1A,
D5,
08,
12,
14,
06,
FC,
13,
02,
16,
07,
F8,
DD,
16,
1A,
EE,
CD,
12,
03,
31,
E0,
FD,
14,
03,
FE,
E0,
DE,
F0,
0F,
F5,
F1,
F0,
EA,
E1,
22,
EA,
2D,
DA,
F3,
C2,
F0,
F0,
D6,
EB,
C1,
F5,
18,
E2,
0A,
E9,
EB,
F8,
DF,
DD,
04,
D3,
FC,
F1,
DA,
01,
1A,
02,
F8,
0B,
1A,
F7,
E6,
E8,
23,
F6,
FD,
07,
DF,
29,
DB,
14,
E0,
0F,
DD,
FB,
F6,
08,
0E,
0E,
02,
ED,
F5,
EA,
03,
03,
FC,
F6,
E7,
F7,
00,
00,
09,
05,
DC,
EA,
F3,
EA,
0E,
06,
FF,
F8,
16,
21,
F1,
DB,
F5,
15,
E3,
F6,
EB,
B6,
DD,
1B,
0D,
1A,
16,
1D,
06,
F7,
13,
E6,
F9,
E4,
EA,
FD,
00,
E4,
F8,
01,
D1,
0D,
02,
EE,
1B,
0A,
01,
E6,
D9,
2A,
1A,
03,
E4,
CD,
ED,
26,
EB,
D1,
F1,
E9,
04,
18,
DC,
ED,
08,
17,
1D,
0D,
FA,
E2,
F1,
1F,
23,
F4,
21,
D9,
14,
E1,
16,
02,
09,
17,
0A,
E9,
F5,
0D,
00,
D8,
EC,
E2,
0B,
E4,
22,
E4,
24,
F7,
31,
23,
14,
E3,
E3,
E4,
0F,
EF,
12,
0D,
20,
27,
0B,
FC,
E0,
1C,
F8,
DA,
EF,
E2,
00,
FB,
FA,
16,
29,
C8,
07,
21,
DE,
10,
01,
42,
F8,
F3,
FA,
1E,
0E,
FB,
F2,
F4,
2D,
1F,
FD,
E4,
FD,
17,
1C,
1B,
04,
FB,
07,
06,
0C,
F4,
FA,
F7,
F3,
14,
09,
F2,
FA,
02,
EF,
0B,
01,
FD,
F5,
04,
00,
D2,
06,
E6,
0D,
E8,
0C,
FE,
E0,
FE,
F5,
F3,
F9,
FD,
E5,
ED,
F5,
D4,
04,
E4,
E2,
F4,
07,
0E,
FA,
FE,
14,
F5,
17,
EB,
D4,
1B,
17,
E4,
09,
E9,
FE,
F2,
04,
12,
EC,
03,
07,
F0,
D2,
FF,
0D,
E9,
0F,
E7,
11,
18,
E4,
1B,
15,
30,
E0,
1B,
1D,
DF,
E4,
FD,
FF,
04,
1F,
20,
20,
05,
1B,
F7,
03,
10,
14,
10,
15,
07,
16,
D8,
E7,
07,
E3,
17,
0C,
F1,
F8,
13,
DD,
2D,
07,
17,
E8,
C1,
F2,
15,
F8,
D1,
F7,
F0,
13,
1C,
0B,
FE,
00,
E6,
0E,
00,
FC,
16,
1E,
20,
26,
01,
1D,
11,
00,
00,
03,
DD,
0D,
FF,
25,
F3,
0C,
15,
08,
EF,
1D,
F1,
E7,
DC,
F4,
D2,
FE,
0B,
F9,
15,
14,
11,
C2,
FD,
15,
1E,
EF,
E7,
02,
FD,
0C,
0A,
06,
E9,
FB,
DC,
0C,
20,
9B,
F3,
F3,
0E,
F3,
05,
2F,
D6,
0F,
01,
15,
06,
1A,
12,
0A,
1B,
FB,
24,
EF,
1C,
F5,
FE,
DA,
FD,
E2,
0F,
D6,
10,
FA,
10,
01,
07,
CD,
11,
14,
26,
FB,
D0,
04,
E7,
F4,
EA,
F6,
09,
14,
01,
DE,
EA,
FE,
F8,
FE,
E1,
14,
ED,
F2,
0A,
F4,
FE,
0D,
F9,
00,
1F,
05,
FD,
ED,
12,
0E,
05,
07,
D3,
0A,
F3,
F5,
DD,
01,
F5,
09,
04,
F4,
D1,
14,
F9,
D0,
E3,
06,
F3,
E8,
05,
BB,
44,
13,
39,
E2,
B4,
21,
2D,
0B,
F3,
09,
C8,
15,
09,
D0,
C4,
D2,
20,
06,
00,
18,
FB,
10,
33,
D8,
F7,
F3,
F3,
F4,
DF,
01,
F5,
14,
01,
15,
0F,
F3,
ED,
28,
2A,
B6,
08,
04,
16,
05,
1B,
B6,
1C,
1E,
23,
0C,
F0,
0F,
16,
D2,
0E,
1C,
DD,
26,
0E,
2C,
04,
F3,
08,
04,
07,
EF,
10,
F3,
03,
F6,
02,
0F,
07,
F3,
0E,
08,
09,
F8,
F6,
F1,
0A,
0E,
FE,
12,
FF,
0A,
10,
EC,
13,
0C,
F4,
12,
F6,
0A,
08,
00,
FB,
F3,
10,
0A,
0C,
04,
0B,
0C,
0E,
F6,
FA,
F3,
F6,
0C,
0D,
FB,
01,
F7,
EC,
F7,
07,
10,
0F,
12,
EC,
EF,
FD,
FA,
0B,
F6,
F2,
EF,
02,
F6,
06,
00,
FC,
0F,
0D,
F8,
F9,
10,
08,
01,
07,
F1,
10,
FE,
09,
0F,
F2,
EB,
14,
05,
13,
13,
EF,
F3,
ED,
05,
ED,
0B,
0C,
10,
0C,
13,
08,
02,
0C,
07,
F0,
F4,
0E,
0D,
05,
F5,
F7,
F9,
04,
F3,
F1,
08,
05,
02,
EC,
FC,
05,
EF,
07,
0F,
03,
F9,
0E,
11,
0A,
E2,
63,
18,
27,
BF,
FE,
F6,
EC,
F8,
0F,
4C,
12,
15,
E8,
17,
1E,
08,
F1,
F0,
CB,
37,
E5,
0D,
03,
E8,
F1,
37,
0A,
D2,
EA,
10,
39,
07,
F6,
38,
F1,
00,
1F,
FE,
1E,
DC,
0B,
E0,
1B,
E8,
0A,
08,
34,
12,
06,
0B,
EC,
22,
51,
DC,
FF,
33,
F2,
2E,
F9,
35,
01,
02,
2B,
26,
2B,
37,
11,
E9,
0B,
F6,
19,
FE,
E1,
E7,
D6,
29,
3D,
0E,
44,
4D,
F7,
26,
0A,
DF,
29,
F9,
2E,
CC,
25,
21,
0A,
17,
34,
05,
EF,
D0,
02,
3F,
05,
FB,
CE,
13,
F8,
2B,
EF,
29,
04,
0D,
10,
06,
EC,
10,
E9,
D1,
18,
D0,
1F,
08,
1B,
FC,
BC,
36,
1C,
DD,
04,
04,
E1,
1C,
1F,
03,
0A,
29,
FD,
1E,
30,
2F,
FE,
18,
ED,
2B,
E4,
F3,
29,
11,
00,
08,
EF,
F6,
0E,
F5,
E4,
03,
11,
F2,
EC,
21,
F8,
EA,
FA,
0A,
33,
17,
DB,
10,
0F,
0D,
04,
0F,
15,
01,
F0,
16,
FF,
DE,
F1,
0B,
19,
D4,
00,
EC,
F9,
08,
24,
05,
00,
26,
1F,
DC,
EA,
11,
3A,
0E,
D8,
0E,
1D,
C7,
2B,
1D,
DD,
05,
13,
BF,
EE,
FD,
E6,
26,
C1,
E9,
D1,
FB,
13,
06,
F7,
E8,
EA,
0A,
FF,
03,
FF,
C9,
F7,
F7,
45,
1B,
F6,
BE,
12,
E1,
E2,
C7,
FD,
E9,
09,
03,
1F,
FB,
ED,
15,
10,
13,
F0,
02,
BD,
C3,
06,
10,
E5,
F5,
E4,
F8,
CB,
F9,
0A,
0C,
08,
0B,
F8,
00,
F7,
0F,
F4,
08,
0B,
FA,
05,
EF,
FB,
F2,
F5,
03,
FC,
07,
F4,
F6,
12,
EF,
FB,
07,
F0,
F2,
07,
03,
10,
EC,
02,
FF,
F1,
05,
0B,
0F,
F5,
F6,
F9,
07,
00,
F6,
0A,
FA,
07,
0A,
F2,
F8,
F2,
15,
0C,
0F,
F4,
09,
11,
FF,
16,
03,
04,
0F,
FF,
F3,
FB,
03,
02,
F9,
F5,
FD,
F9,
ED,
0B,
0E,
0F,
FF,
FA,
F8,
F0,
02,
04,
0D,
15,
FF,
0E,
0B,
10,
07,
11,
13,
F0,
0E,
06,
06,
0F,
11,
F3,
EE,
10,
0F,
02,
F0,
FB,
F3,
F4,
F6,
00,
0B,
06,
FE,
01,
07,
10,
FA,
0E,
FF,
FA,
04,
F0,
FD,
0B,
F4,
FE,
F7,
FF,
FB,
07,
13,
02,
07,
01,
F9,
00,
0C,
EE,
07,
0B,
09,
F9,
15,
0C,
04,
FD,
03,
10,
05,
17,
ED,
08,
FA,
04,
11,
FF,
02,
01,
11,
13,
F7,
11,
FD,
FE,
11,
04,
10,
FE,
F0,
0F,
02,
0A,
03,
F7,
10,
14,
F6,
0C,
07,
11,
F4,
FF,
13,
05,
0E,
FF,
03,
0E,
08,
F2,
01,
04,
0D,
F0,
EE,
F4,
FC,
01,
FC,
05,
FE,
09,
F1,
0C,
E9,
BD,
EF,
F5,
17,
D5,
F6,
22,
15,
E9,
E8,
F5,
F6,
0C,
CE,
F8,
F6,
D4,
2F,
FB,
F4,
1B,
36,
0C,
B7,
29,
2D,
F3,
0E,
F1,
F8,
02,
04,
CD,
EC,
03,
F2,
03,
29,
EF,
F1,
EF,
01,
0C,
22,
F4,
E4,
E0,
02,
04,
0E,
EF,
00,
12,
F1,
07,
15,
FE,
10,
D9,
20,
11,
F5,
1A,
22,
18,
26,
01,
06,
0A,
F3,
07,
E3,
0E,
14,
0C,
EF,
0E,
13,
13,
FB,
F9,
2C,
FB,
F6,
EE,
D9,
F6,
E3,
E1,
ED,
E4,
13,
08,
F5,
29,
32,
00,
09,
E6,
F2,
03,
24,
F6,
F1,
FA,
E2,
2A,
19,
2A,
08,
03,
D8,
C9,
03,
19,
33,
FE,
F5,
03,
0E,
0C,
22,
36,
14,
D6,
FC,
E4,
F2,
22,
E6,
EC,
E5,
F5,
F0,
E9,
0F,
1F,
36,
F1,
24,
40,
F7,
C7,
21,
16,
3D,
F5,
0A,
EB,
19,
1B,
F2,
2A,
34,
F5,
42,
ED,
F2,
C6,
F7,
20,
0F,
FD,
FD,
F6,
2C,
0D,
E6,
FC,
FF,
FE,
F4,
F4,
15,
E3,
31,
D0,
5C,
19,
14,
2E,
18,
F0,
EF,
FE,
ED,
EE,
1D,
E7,
CD,
AF,
2A,
CA,
1A,
08,
1E,
3F,
0E,
00,
EB,
0B,
ED,
F4,
E9,
DD,
1E,
07,
F2,
EC,
04,
D5,
FE,
06,
EF,
EC,
E9,
D5,
EC,
DA,
06,
E1,
C0,
1B,
26,
45,
30,
01,
DD,
FC,
FB,
1B,
E0,
13,
F5,
F8,
F6,
03,
0B,
EE,
EC,
F2,
F7,
26,
EC,
15,
3C,
FE,
02,
20,
0E,
1B,
AE,
0F,
10,
02,
F2,
0C,
1F,
DE,
CC,
F9,
FE,
1F,
26,
05,
18,
0D,
F8,
F6,
16,
F1,
F6,
F0,
E8,
0A,
0B,
FC,
E7,
1F,
F5,
27,
09,
EB,
F8,
E1,
DC,
08,
05,
F1,
DF,
0A,
06,
02,
F4,
DB,
C9,
D1,
E7,
F4,
ED,
06,
0A,
F0,
F2,
02,
D4,
14,
00,
E5,
26,
E9,
10,
17,
08,
11,
F3,
15,
E6,
EE,
17,
16,
F7,
16,
E0,
04,
26,
CF,
F5,
F0,
FB,
FD,
FF,
F1,
1B,
0E,
F5,
23,
F8,
11,
F7,
22,
08,
06,
EE,
ED,
00,
13,
07,
02,
28,
14,
1C,
16,
D8,
D8,
FA,
21,
0B,
F0,
2D,
F5,
FF,
14,
F6,
12,
25,
F8,
08,
08,
FB,
0E,
05,
F7,
0F,
E8,
EB,
2F,
FE,
10,
E1,
1E,
F7,
0F,
C2,
16,
F3,
D0,
F4,
CC,
E2,
DE,
0D,
1E,
1A,
F9,
DE,
07,
FD,
D9,
D4,
2D,
12,
ED,
10,
AD,
E8,
FB,
00,
23,
2A,
15,
14,
19,
D1,
DB,
2A,
0B,
01,
F9,
E7,
07,
F5,
E4,
06,
FC,
E9,
12,
F0,
02,
E5,
F2,
09,
BD,
2C,
E7,
1A,
F5,
12,
07,
0E,
13,
EB,
F3,
D6,
F0,
E9,
F6,
0A,
E8,
D4,
09,
F0,
08,
E7,
E7,
07,
14,
14,
F1,
EA,
00,
12,
F4,
CF,
07,
F1,
0A,
F5,
F7,
FA,
E1,
F6,
10,
FD,
FD,
FF,
09,
F2,
00,
F4,
14,
D3,
FD,
11,
06,
FB,
E6,
DC,
EC,
0D,
FF,
E6,
DC,
EE,
08,
EF,
05,
E2,
01,
F9,
E8,
01,
E6,
02,
E3,
E9,
00,
0E,
E8,
F0,
04,
EA,
F5,
15,
A7,
0D,
3C,
0D,
ED,
93,
EA,
EB,
15,
48,
0D,
E7,
2A,
E2,
D3,
DC,
D8,
E2,
E0,
2B,
F6,
CE,
D6,
FA,
27,
FE,
BE,
49,
0A,
2F,
FC,
31,
01,
12,
1A,
2E,
DA,
0C,
F1,
F8,
11,
29,
1A,
F4,
CC,
F9,
01,
C4,
E7,
0E,
E2,
04,
01,
24,
F9,
13,
FF,
18,
CB,
06,
E4,
14,
04,
11,
0E,
0F,
CF,
1A,
04,
1A,
3A,
F0,
EE,
0E,
F0,
F5,
12,
CD,
25,
D3,
16,
0D,
15,
E9,
09,
EC,
0A,
E7,
07,
23,
F1,
1E,
C2,
15,
FE,
08,
FF,
14,
F5,
FD,
00,
02,
1C,
18,
14,
BA,
31,
F7,
D6,
02,
1E,
EC,
07,
08,
1E,
F7,
04,
F4,
DF,
12,
0F,
EF,
F7,
0D,
0F,
07,
F1,
EC,
FB,
01,
11,
0B,
EC,
FE,
FB,
FD,
EC,
0E,
F1,
EE,
FA,
08,
EE,
FD,
13,
EC,
02,
EF,
EC,
EC,
F6,
FB,
02,
F8,
FA,
01,
EC,
0C,
F0,
03,
F6,
0C,
13,
05,
07,
F5,
02,
04,
F0,
FE,
03,
FE,
12,
F8,
06,
0E,
FC,
03,
0E,
FC,
F7,
0B,
F1,
FC,
49,
B8,
07,
FA,
BB,
CC,
12,
01,
2D,
0C,
EC,
22,
2C,
40,
33,
DA,
19,
03,
DD,
04,
1C,
06,
18,
C2,
F3,
08,
C3,
11,
08,
1B,
01,
BD,
0B,
EE,
C2,
2D,
CD,
F9,
3A,
A0,
D8,
FC,
12,
1D,
4D,
41,
DE,
F1,
F6,
FC,
14,
D4,
F6,
DC,
FE,
07,
D6,
47,
FD,
E4,
0D,
EB,
09,
FD,
02,
0E,
F2,
F5,
DF,
0A,
E1,
DC,
07,
FC,
16,
10,
08,
05,
CC,
D5,
DD,
EF,
0B,
18,
12,
F5,
E4,
09,
17,
02,
07,
D3,
FA,
D7,
01,
F5,
F3,
00,
F4,
13,
F1,
FC,
06,
E1,
C6,
E1,
18,
0C,
E2,
FB,
EF,
03,
14,
F8,
09,
E8,
EA,
FC,
11,
0D,
E2,
D2,
EB,
18,
F2,
ED,
FF,
0A,
F6,
EC,
F9,
12,
EA,
03,
EE,
F7,
04,
F6,
0A,
FB,
0B,
0C,
0A,
F9,
10,
12,
07,
05,
02,
F9,
EF,
09,
03,
0D,
10,
0A,
F8,
F0,
EC,
0E,
F0,
0B,
F6,
EB,
0B,
EF,
07,
0A,
05,
07,
08,
00,
08,
05,
F9,
06,
13,
08,
0D,
0B,
F0,
13,
08,
F5,
F5,
15,
F1,
EF,
0E,
01,
FF,
08,
D9,
22,
18,
18,
0F,
C6,
45,
06,
DF,
26,
C9,
01,
15,
EA,
2F,
FA,
15,
0A,
2D,
D5,
46,
0A,
F1,
FC,
D2,
F4,
D9,
06,
24,
02,
01,
33,
35,
17,
D7,
21,
FF,
03,
15,
2C,
22,
0C,
1F,
31,
2D,
18,
FC,
F3,
CE,
ED,
15,
FC,
0C,
EA,
02,
F3,
E7,
35,
2A,
EB,
13,
FE,
21,
1F,
FF,
FB,
FB,
04,
02,
0B,
27,
F7,
26,
10,
FD,
1C,
D9,
1F,
D0,
EC,
CA,
ED,
12,
FC,
0D,
F5,
07,
16,
2B,
10,
E2,
E8,
20,
E0,
0B,
07,
10,
DF,
0F,
1E,
0F,
E8,
05,
E2,
E7,
0A,
26,
01,
01,
01,
FB,
D4,
FB,
0A,
F8,
0F,
FF,
1A,
07,
FA,
EE,
B5,
F4,
00,
F3,
FF,
F6,
EC,
1E,
D8,
D3,
4B,
12,
D1,
13,
F9,
18,
21,
EF,
12,
12,
1C,
1C,
CC,
1A,
C3,
05,
D7,
EF,
13,
E4,
E5,
05,
17,
F7,
DD,
2E,
F7,
14,
ED,
1A,
FA,
BB,
D7,
07,
D9,
E8,
C9,
38,
D0,
19,
23,
0B,
0A,
0C,
02,
D8,
0D,
F1,
1D,
03,
05,
0D,
03,
F3,
1B,
FF,
F6,
00,
A7,
F7,
27,
02,
E9,
00,
06,
FC,
18,
DF,
FF,
1F,
28,
16,
E6,
E4,
02,
2A,
D3,
DB,
EC,
F8,
04,
F1,
1F,
04,
EF,
CA,
ED,
FA,
1B,
EE,
F7,
AD,
D7,
18,
F2,
E9,
18,
28,
E0,
18,
E2,
1B,
FC,
D4,
1D,
1C,
10,
19,
05,
FB,
08,
1D,
04,
E3,
01,
17,
11,
F8,
EC,
1D,
C1,
E6,
D0,
F2,
F2,
0A,
E5,
05,
EA,
11,
0D,
F5,
EB,
E9,
23,
FC,
EF,
F0,
0D,
FB,
0B,
D5,
0B,
FA,
02,
03,
E5,
FE,
03,
EB,
13,
EE,
01,
F1,
16,
F0,
F8,
05,
0D,
0C,
04,
0D,
06,
0E,
FC,
00,
22,
12,
02,
DD,
13,
DE,
EB,
D0,
F3,
ED,
FC,
1F,
EC,
F6,
1B,
1F,
E6,
E2,
14,
E7,
0B,
ED,
11,
07,
C3,
0E,
F2,
10,
16,
DE,
E3,
1D,
03,
06,
11,
E6,
23,
F8,
F0,
0B,
18,
F5,
F0,
EA,
D0,
E7,
FC,
15,
2C,
1B,
F0,
08,
DE,
0F,
0F,
EB,
FA,
F8,
BD,
1E,
E2,
06,
D6,
20,
FF,
F8,
F4,
D8,
F9,
E1,
F6,
02,
FF,
0F,
04,
30,
00,
28,
0F,
F8,
E9,
E9,
16,
05,
06,
EB,
F8,
10,
0E,
11,
DE,
EC,
17,
D6,
14,
F4,
11,
F9,
E6,
F7,
DD,
22,
D9,
F4,
C6,
ED,
F7,
D6,
1A,
F8,
FE,
06,
02,
1A,
FE,
E8,
FA,
ED,
E3,
0C,
27,
1A,
04,
0D,
FA,
15,
08,
12,
BB,
21,
20,
E1,
FD,
F6,
FC,
E2,
08,
1C,
D8,
F6,
01,
EF,
F6,
F3,
DB,
1A,
08,
EF,
F8,
0E,
15,
E6,
03,
15,
FE,
ED,
13,
10,
EF,
E5,
EF,
10,
F7,
0F,
FB,
1C,
EB,
09,
0D,
0F,
E9,
00,
E2,
1E,
EC,
DF,
F5,
16,
E8,
F7,
F0,
FA,
08,
0C,
E4,
EF,
F6,
0F,
19,
0A,
F7,
ED,
EF,
F5,
EE,
0E,
F9,
D4,
FD,
DC,
FE,
F9,
17,
E6,
12,
E2,
11,
10,
EC,
F5,
07,
FA,
1D,
E8,
D2,
E1,
12,
0B,
6B,
03,
DA,
DE,
1B,
1E,
00,
11,
12,
38,
FF,
C1,
1B,
DC,
AA,
15,
F2,
13,
13,
01,
34,
2C,
14,
ED,
E2,
2D,
FC,
F9,
D1,
E0,
27,
D2,
00,
37,
F7,
07,
1C,
1C,
AE,
D5,
19,
33,
BA,
2F,
06,
EE,
16,
17,
22,
2A,
1B,
06,
07,
E9,
09,
27,
1C,
FC,
EE,
D8,
43,
1F,
EE,
1B,
EE,
09,
AE,
27,
39,
E3,
04,
D7,
32,
45,
3E,
3A,
1D,
26,
02,
E9,
EA,
1E,
13,
1F,
EB,
27,
F0,
D3,
CA,
27,
F3,
19,
F2,
11,
E9,
01,
EB,
CF,
25,
C6,
2A,
E6,
29,
04,
F5,
46,
27,
EB,
1E,
38,
D6,
17,
D0,
1D,
B7,
28,
FA,
07,
2D,
38,
F4,
FD,
F6,
EC,
DB,
0F,
F3,
F0,
FD,
E0,
E2,
23,
08,
EE,
10,
D0,
F0,
25,
FE,
FD,
F8,
0B,
15,
F5,
EF,
ED,
06,
12,
18,
0D,
08,
EC,
DB,
20,
F9,
15,
13,
11,
0D,
E3,
19,
FA,
FD,
FB,
0E,
0B,
EE,
F7,
30,
04,
CE,
FA,
19,
DF,
F8,
F7,
0B,
D8,
18,
C2,
0A,
05,
18,
17,
18,
F4,
F6,
F2,
F6,
F0,
11,
D2,
E4,
06,
2B,
ED,
0C,
34,
C2,
43,
02,
D8,
E3,
28,
F5,
FD,
1B,
FA,
34,
25,
2A,
08,
39,
05,
F3,
4A,
08,
E7,
E3,
F7,
DF,
E9,
08,
D0,
EA,
1E,
FD,
06,
19,
FF,
0F,
03,
FF,
24,
1A,
18,
28,
F4,
00,
08,
1B,
F2,
22,
C8,
F7,
3C,
C9,
1A,
07,
F4,
F3,
11,
16,
13,
E1,
2E,
F9,
FC,
F9,
27,
39,
E8,
F1,
FA,
F9,
05,
10,
0A,
FA,
09,
18,
CE,
04,
09,
11,
20,
0E,
0C,
0F,
CB,
EA,
F4,
06,
F8,
03,
C0,
E0,
F1,
F6,
F0,
29,
D3,
0C,
E6,
2A,
F3,
FB,
12,
EF,
EB,
F5,
24,
D2,
31,
D9,
2A,
F2,
07,
FD,
18,
D7,
2F,
09,
00,
00,
0F,
F6,
1C,
0C,
0B,
D7,
03,
B1,
08,
CC,
00,
2F,
E4,
1A,
23,
2C,
D2,
0A,
32,
1A,
0D,
F5,
F7,
39,
36,
F9,
F1,
16,
E2,
15,
E1,
04,
EE,
F6,
F9,
28,
F8,
12,
EA,
00,
14,
FC,
EF,
E5,
07,
CE,
15,
13,
1D,
09,
04,
F0,
F1,
F5,
25,
FA,
12,
1D,
E3,
1D,
2A,
F8,
06,
F9,
EE,
11,
1F,
FE,
21,
E9,
CA,
22,
17,
28,
0C,
08,
F3,
FB,
05,
07,
13,
1C,
15,
11,
E0,
30,
10,
04,
29,
2D,
FD,
04,
04,
AB,
EF,
EE,
E9,
01,
E6,
35,
D6,
E9,
F6,
26,
D9,
2F,
04,
F4,
F5,
05,
27,
11,
00,
E7,
01,
08,
FE,
FD,
F3,
FF,
CC,
2E,
12,
F4,
12,
06,
EC,
0E,
11,
00,
0E,
DD,
EB,
22,
F1,
F1,
11,
FD,
12,
05,
15,
01,
09,
09,
2C,
CD,
17,
DB,
F5,
F3,
F4,
11,
DE,
F2,
14,
01,
24,
E7,
06,
0B,
F3,
EE,
05,
0E,
DC,
D5,
1D,
E5,
AB,
C6,
0D,
FC,
E2,
1E,
10,
18,
E0,
0D,
EF,
EE,
04,
19,
04,
0E,
00,
0F,
F3,
11,
11,
CB,
F9,
94,
EB,
FA,
37,
F7,
0C,
18,
F7,
FE,
27,
F6,
F4,
27,
ED,
01,
EB,
E9,
07,
FD,
EA,
08,
09,
D5,
0C,
17,
25,
EA,
DB,
1C,
DD,
04,
28,
03,
D0,
09,
11,
0C,
EF,
0D,
DB,
F3,
04,
FE,
EA,
2E,
EA,
FF,
13,
02,
0A,
F0,
E1,
14,
28,
10,
F5,
22,
1D,
07,
EC,
E7,
2B,
E1,
F7,
F9,
EE,
04,
03,
F5,
01,
1D,
CC,
0B,
03,
14,
11,
D8,
04,
0E,
01,
F2,
F8,
21,
DF,
08,
04,
F8,
06,
FA,
F4,
24,
05,
2F,
2B,
F7,
EF,
E9,
EC,
F9,
02,
16,
FF,
E3,
02,
F5,
F6,
DC,
16,
EB,
0C,
EA,
07,
F2,
F6,
F6,
21,
27,
F3,
06,
04,
F5,
F4,
21,
07,
FC,
12,
1E,
FE,
FD,
1D,
E7,
03,
1C,
09,
01,
1A,
FA,
13,
10,
0E,
07,
25,
FD,
F3,
EA,
C5,
FA,
0B,
0A,
1B,
F8,
15,
19,
D5,
F7,
1E,
05,
07,
11,
0F,
03,
10,
0D,
F0,
16,
06,
FA,
1E,
1E,
FD,
01,
25,
F7,
04,
16,
31,
DF,
FE,
09,
E6,
09,
EE,
04,
01,
15,
10,
F9,
F3,
DE,
FC,
F1,
02,
06,
00,
10,
00,
11,
FC,
10,
14,
06,
0D,
06,
EE,
F8,
0D,
07,
19,
17,
05,
19,
F3,
EC,
FA,
FD,
04,
06,
F4,
12,
0E,
0C,
04,
0F,
EB,
FC,
FF,
FC,
11,
FA,
0A,
00,
F0,
F1,
0A,
0C,
FF,
0D,
06,
14,
F7,
F1,
ED,
16,
F0,
EC,
03,
EE,
F5,
01,
01,
0E,
12,
0A,
E7,
FF,
00,
F3,
F8,
08,
0B,
ED,
18,
F5,
F0,
14,
0D,
DB,
F7,
01,
05,
FF,
FE,
EA,
09,
13,
06,
DE,
DA,
1C,
1A,
09,
14,
0A,
EA,
D7,
F8,
0D,
DC,
E9,
E0,
E7,
0C,
F9,
FF,
20,
00,
35,
09,
E8,
F6,
DF,
0A,
FA,
F4,
F9,
DB,
CE,
39,
12,
10,
04,
DF,
24,
03,
F8,
16,
FF,
06,
0D,
FF,
15,
30,
E1,
5F,
D2,
25,
14,
AD,
BD,
19,
49,
D3,
2C,
C6,
24,
FE,
15,
3B,
05,
F1,
CC,
AD,
D4,
0E,
EE,
31,
E6,
24,
16,
D8,
FE,
05,
DF,
08,
AA,
10,
05,
E8,
DE,
D0,
DD,
25,
E4,
1D,
CF,
1B,
07,
4A,
0F,
17,
CC,
09,
0E,
F2,
D8,
0F,
C1,
43,
21,
C3,
0C,
19,
ED,
00,
D5,
03,
0A,
0A,
F7,
DF,
D0,
CB,
DE,
11,
E8,
C0,
DE,
CE,
0F,
26,
13,
ED,
F0,
FD,
FB,
FB,
FB,
F3,
0F,
0A,
EF,
FA,
04,
1D,
10,
22,
EA,
F9,
0B,
DB,
E2,
E1,
D9,
0E,
08,
EF,
FB,
E9,
D9,
0E,
E7,
DE,
05,
03,
D0,
F6,
EE,
DD,
BF,
10,
11,
FC,
E1,
D8,
F9,
17,
FE,
F4,
09,
F6,
19,
06,
F6,
F4,
F3,
E9,
E1,
FA,
D9,
EE,
DA,
06,
07,
F7,
06,
0D,
1E,
E7,
0D,
F9,
F9,
0D,
E0,
0D,
F7,
09,
E5,
09,
02,
EA,
F0,
F8,
09,
E5,
02,
02,
E4,
E5,
1B,
00,
DB,
F7,
F2,
06,
0B,
D5,
F9,
F8,
F4,
E2,
0F,
02,
18,
FA,
CF,
0B,
0C,
F1,
D8,
04,
EC,
E0,
0B,
DA,
10,
E6,
F1,
17,
D2,
24,
D8,
1D,
03,
F6,
2A,
C6,
F5,
F0,
F6,
EE,
DD,
07,
D2,
1B,
FD,
FD,
E5,
02,
F4,
ED,
02,
D4,
E5,
DA,
0B,
E8,
02,
F6,
D4,
0F,
E4,
EA,
CB,
18,
EA,
1C,
E0,
32,
E8,
F8,
F8,
04,
F8,
EF,
F6,
D0,
05,
C8,
16,
FA,
06,
C7,
18,
E8,
0B,
FD,
FC,
EF,
00,
01,
18,
00,
00,
01,
1A,
F1,
30,
E7,
1D,
09,
05,
1B,
F1,
0D,
D5,
31,
F5,
19,
13,
0B,
0E,
EB,
F9,
F7,
20,
06,
2B,
F9,
E8,
E6,
DC,
0C,
1F,
01,
F7,
13,
E9,
10,
FF,
11,
03,
C8,
04,
08,
08,
F9,
F3,
F3,
04,
25,
F4,
15,
FF,
E8,
F0,
0A,
1B,
1C,
E0,
F9,
E4,
03,
1E,
ED,
E5,
0A,
12,
22,
29,
38,
08,
15,
E9,
00,
15,
15,
2F,
FD,
30,
28,
06,
17,
12,
20,
FD,
47,
0D,
1A,
16,
06,
E7,
14,
FC,
27,
F4,
32,
D9,
17,
CE,
24,
F4,
EB,
1A,
14,
1D,
FE,
22,
14,
26,
E8,
0F,
E6,
15,
D0,
E9,
FA,
F4,
2D,
DF,
F5,
35,
F6,
E2,
EC,
DD,
13,
19,
F8,
F4,
0B,
EA,
DE,
F9,
0F,
E3,
12,
13,
E6,
07,
0A,
0A,
07,
F0,
E3,
F6,
F0,
FE,
05,
04,
18,
05,
14,
F6,
FF,
E0,
FE,
EB,
EF,
F0,
DD,
F8,
F1,
FF,
FD,
05,
F3,
F5,
FC,
05,
0F,
FE,
0C,
F5,
DE,
D5,
F6,
0C,
13,
09,
15,
FA,
F6,
F7,
13,
E4,
FA,
0B,
D8,
12,
FF,
26,
21,
18,
FF,
36,
D3,
1E,
F8,
F3,
EE,
05,
FB,
26,
12,
29,
31,
1E,
F5,
0F,
2A,
F4,
33,
1A,
20,
07,
45,
32,
F0,
DA,
3F,
10,
27,
DE,
58,
25,
FB,
EE,
07,
08,
F0,
18,
FF,
46,
FD,
28,
33,
20,
FB,
2B,
EC,
E5,
F5,
DD,
08,
FF,
40,
FD,
E3,
2B,
39,
E0,
01,
D4,
00,
0D,
03,
FF,
F1,
13,
00,
EC,
07,
F8,
0E,
0F,
05,
FD,
06,
F6,
F2,
01,
0C,
ED,
FA,
0B,
10,
0A,
05,
09,
F4,
0C,
08,
F2,
F9,
F3,
F1,
F4,
03,
FD,
10,
F5,
0E,
FD,
FB,
F4,
FA,
FC,
0D,
ED,
F2,
08,
06,
FE,
0E,
F8,
05,
02,
10,
EC,
EE,
F3,
F6,
F2,
10,
13,
12,
02,
09,
36,
F4,
18,
FE,
05,
EF,
FB,
27,
03,
04,
DA,
DF,
18,
0D,
33,
2A,
2F,
20,
F3,
04,
E3,
1D,
07,
19,
E5,
1E,
E5,
04,
07,
30,
EF,
25,
CD,
40,
01,
FF,
C8,
ED,
FD,
EA,
F2,
18,
2B,
22,
57,
42,
2C,
09,
2F,
F3,
FD,
F3,
ED,
1F,
0B,
3F,
FD,
EC,
0E,
12,
DA,
F1,
ED,
DB,
FD,
F0,
17,
0B,
01,
FD,
05,
E0,
14,
FB,
09,
F2,
1F,
E3,
10,
F9,
26,
E4,
F7,
D4,
FC,
F4,
03,
E8,
03,
0B,
03,
19,
0F,
14,
E5,
01,
07,
B5,
15,
FE,
F0,
1E,
E8,
E8,
E8,
09,
F5,
06,
11,
FD,
B1,
0C,
DB,
FA,
DB,
ED,
05,
FC,
FD,
22,
FF,
EA,
A9,
16,
1F,
FD,
DE,
F3,
0B,
F8,
E5,
04,
1C,
15,
EB,
F6,
23,
F7,
2F,
22,
E7,
02,
EC,
09,
10,
27,
F7,
13,
FE,
DD,
FF,
0F,
E9,
F2,
EC,
11,
F3,
E5,
0D,
04,
1C,
1F,
0E,
0D,
02,
16,
03,
D4,
03,
14,
FF,
EE,
F9,
FE,
17,
09,
21,
F2,
05,
E0,
06,
F4,
21,
F2,
0A,
01,
EE,
D8,
FA,
07,
02,
F8,
33,
18,
F6,
3E,
08,
2E,
DA,
E0,
04,
E5,
B3,
2B,
F6,
DB,
33,
2A,
43,
0C,
29,
11,
27,
F7,
08,
B6,
28,
F6,
F5,
15,
F7,
21,
08,
35,
39,
04,
15,
14,
0D,
0E,
E0,
D2,
03,
D7,
05,
F9,
20,
0D,
BF,
0F,
F2,
0F,
B6,
4A,
F5,
0A,
29,
FC,
F9,
ED,
E5,
22,
1A,
FD,
31,
E3,
0D,
E9,
02,
06,
15,
08,
03,
1A,
E7,
F8,
15,
DC,
03,
2F,
1E,
16,
18,
FD,
1D,
16,
F9,
00,
FD,
F9,
FD,
07,
00,
02,
CC,
28,
1B,
F1,
05,
0F,
07,
16,
19,
E3,
FB,
21,
FF,
E6,
F5,
03,
0A,
F9,
EE,
DC,
F0,
E6,
16,
01,
F2,
FD,
14,
06,
ED,
C7,
16,
05,
02,
F3,
FB,
EB,
05,
03,
FA,
F1,
FF,
09,
0E,
05,
0A,
FA,
04,
0D,
EE,
06,
0B,
F8,
13,
03,
06,
F3,
0C,
F5,
F5,
F5,
07,
04,
0D,
01,
09,
FE,
F8,
04,
FD,
F8,
F7,
F0,
02,
0F,
F5,
F2,
F0,
FB,
EC,
F6,
11,
07,
0E,
FC,
03,
EB,
16,
17,
09,
13,
FE,
EA,
0F,
FC,
0C,
F9,
EE,
0C,
F2,
0D,
FD,
10,
E0,
0E,
CF,
F5,
FD,
D6,
EB,
01,
F8,
04,
00,
1D,
0B,
FE,
F2,
11,
0D,
E2,
F2,
D9,
F0,
0E,
FF,
17,
FC,
22,
EC,
11,
00,
16,
03,
DE,
E9,
21,
14,
E6,
DC,
0E,
F0,
E5,
24,
22,
F2,
E8,
F9,
02,
12,
F6,
DA,
1A,
D0,
01,
EC,
F6,
F2,
F7,
F6,
00,
FF,
E2,
FB,
04,
F9,
ED,
1B,
07,
12,
DA,
C6,
19,
21,
CE,
43,
D9,
2E,
29,
02,
1A,
2C,
02,
F9,
45,
D7,
E1,
FE,
32,
CB,
03,
2E,
CA,
D1,
2B,
25,
02,
E9,
3F,
27,
E8,
D0,
EC,
B1,
E4,
E1,
34,
DF,
CE,
1E,
3D,
32,
01,
DC,
E7,
23,
CD,
FD,
29,
F1,
12,
1C,
10,
28,
EA,
EC,
EB,
F2,
02,
04,
00,
DA,
D8,
30,
0D,
07,
1B,
F9,
0E,
F2,
1C,
11,
FE,
07,
1D,
12,
FE,
E1,
EA,
EF,
FC,
24,
06,
08,
33,
E2,
EE,
E3,
FA,
ED,
EB,
02,
05,
E1,
08,
0E,
1A,
1B,
B1,
FB,
E6,
EE,
DA,
EC,
21,
EF,
FF,
E8,
29,
0E,
0B,
2D,
F4,
11,
02,
F5,
32,
02,
04,
06,
E9,
04,
0F,
1D,
C9,
EE,
EB,
E6,
0F,
04,
F7,
00,
1B,
CC,
28,
DE,
FB,
18,
20,
1E,
EC,
F2,
03,
13,
0C,
11,
E8,
FD,
11,
D0,
DA,
F1,
FE,
D4,
1B,
24,
DC,
06,
0E,
FE,
08,
02,
ED,
02,
E1,
0D,
0B,
2D,
08,
C9,
EB,
DC,
FD,
E8,
FC,
22,
DC,
0F,
DF,
D5,
02,
CF,
11,
FE,
FE,
FA,
F5,
F5,
2C,
2D,
F0,
1A,
EB,
0A,
36,
BF,
36,
EF,
17,
23,
22,
26,
0A,
03,
3B,
DA,
F0,
37,
22,
12,
09,
4B,
FA,
2F,
1F,
2D,
0D,
EC,
F5,
E3,
C9,
1B,
DD,
20,
05,
1E,
E8,
20,
03,
F9,
F0,
EE,
F7,
F4,
ED,
0D,
EB,
DF,
2D,
DF,
10,
1F,
0D,
EF,
41,
2B,
22,
18,
FA,
D6,
03,
FE,
0B,
F7,
26,
06,
CD,
EB,
F2,
EA,
F3,
2B,
FA,
0B,
10,
F3,
C5,
AE,
D6,
03,
FF,
E8,
ED,
29,
0A,
DA,
CB,
FB,
21,
EA,
F1,
0B,
D9,
06,
E6,
E3,
18,
EB,
F5,
06,
2B,
D0,
F4,
E3,
24,
18,
E8,
05,
0D,
06,
0A,
FC,
E8,
EE,
02,
F4,
D7,
11,
EF,
07,
E2,
0B,
EB,
F6,
16,
DF,
16,
06,
0A,
1C,
D4,
1F,
DB,
09,
15,
F1,
F4,
0D,
03,
36,
1F,
16,
F6,
E0,
00,
F9,
F2,
1E,
F8,
F8,
1D,
FD,
16,
F9,
0F,
ED,
21,
0B,
D4,
16,
23,
18,
0A,
F2,
F3,
F3,
10,
00,
F1,
06,
15,
FE,
02,
EF,
FE,
0F,
0B,
19,
FB,
26,
0C,
F1,
FE,
F0,
17,
0A,
F0,
0A,
FD,
DD,
A2,
20,
14,
FA,
18,
F1,
EB,
07,
20,
08,
27,
FE,
DD,
F3,
00,
04,
D9,
F1,
1D,
C8,
FD,
0F,
DD,
0E,
1C,
E5,
30,
11,
10,
F9,
20,
11,
D7,
F7,
04,
DF,
27,
FD,
E2,
EB,
0C,
ED,
F7,
04,
E9,
FD,
FD,
F5,
E4,
1D,
F8,
F0,
1B,
34,
FE,
F0,
07,
E3,
F9,
EB,
F1,
E4,
F1,
09,
B8,
25,
D7,
14,
D2,
02,
F4,
08,
01,
1B,
FF,
E0,
F5,
EC,
09,
F9,
E3,
29,
0C,
E7,
19,
DD,
FD,
F5,
0F,
EE,
07,
0E,
21,
26,
EC,
F6,
1B,
19,
F0,
EB,
05,
F2,
FB,
0E,
F6,
01,
19,
0C,
F9,
14,
D8,
0C,
D1,
35,
02,
23,
E3,
16,
CA,
F5,
07,
EC,
ED,
EE,
EE,
D8,
00,
E2,
1A,
D9,
F3,
12,
ED,
10,
05,
19,
0A,
19,
F1,
36,
C1,
13,
E8,
0B,
F9,
13,
DC,
0B,
E6,
05,
DF,
FB,
0B,
04,
F3,
02,
14,
DF,
E6,
E3,
FB,
22,
DF,
19,
1A,
FF,
1A,
D5,
1C,
0A,
FD,
F3,
0E,
0A,
FD,
F7,
EF,
CF,
23,
0B,
11,
E7,
1A,
FB,
30,
10,
03,
2C,
ED,
EB,
0C,
15,
10,
F0,
07,
FC,
EC,
FE,
ED,
F0,
FF,
F2,
FD,
ED,
01,
04,
FB,
ED,
0E,
0D,
0E,
EE,
ED,
05,
F8,
F3,
FA,
EF,
01,
13,
FA,
EC,
F8,
0D,
EF,
F2,
0E,
02,
F4,
F6,
13,
FB,
08,
F3,
F7,
00,
F8,
09,
F0,
0B,
F0,
F7,
02,
F6,
11,
04,
06,
EF,
0A,
0B,
F4,
FB,
02,
0F,
FC,
0C,
13,
E3,
02,
00,
02,
2F,
0F,
DF,
EC,
1A,
06,
06,
EF,
16,
FC,
F9,
14,
DF,
06,
DC,
18,
27,
1D,
FA,
F1,
EB,
13,
22,
09,
FE,
F0,
E3,
1C,
DE,
1F,
F4,
F0,
00,
12,
E2,
16,
19,
26,
F9,
11,
2A,
FD,
FF,
0B,
18,
08,
06,
FB,
0A,
02,
14,
00,
24,
10,
01,
EF,
05,
05,
B2,
36,
F2,
15,
0F,
CC,
EC,
08,
15,
0A,
17,
07,
1D,
15,
0F,
F2,
CF,
10,
CF,
F4,
1C,
FC,
00,
3A,
BF,
F3,
1B,
FA,
E8,
02,
0D,
DE,
EA,
0F,
06,
09,
BE,
1C,
14,
1C,
03,
03,
EC,
F9,
E0,
16,
EF,
FB,
F5,
0A,
2C,
EC,
EE,
1A,
EC,
F1,
2A,
02,
0C,
0B,
06,
0B,
1A,
E3,
14,
19,
08,
1D,
E7,
FA,
F6,
11,
05,
F4,
FB,
E8,
22,
40,
1C,
1D,
23,
0A,
09,
15,
09,
19,
23,
0C,
E4,
16,
10,
01,
F2,
F8,
0F,
DB,
CB,
00,
F9,
00,
0A,
FC,
F8,
E2,
EA,
FD,
09,
EC,
FC,
04,
FE,
F1,
1D,
03,
FC,
11,
F8,
1F,
F4,
11,
F0,
F3,
0D,
43,
0C,
0F,
01,
19,
F1,
D9,
12,
DA,
38,
0E,
E8,
15,
1A,
FF,
FC,
29,
EF,
2C,
0C,
CE,
47,
01,
09,
04,
0A,
EE,
1E,
25,
24,
0C,
FB,
FC,
F0,
F8,
1F,
2A,
25,
EF,
3D,
1A,
D2,
FE,
DF,
EB,
33,
FE,
03,
00,
00,
2D,
FF,
20,
16,
0A,
48,
F4,
29,
FD,
26,
EE,
E6,
42,
02,
1D,
27,
0D,
10,
FD,
0F,
F6,
AF,
13,
0B,
0C,
EC,
E8,
E2,
01,
07,
EF,
E4,
00,
0C,
FC,
02,
FF,
01,
EA,
DB,
F8,
02,
EB,
05,
E6,
12,
05,
0C,
EF,
EA,
E0,
0C,
F6,
02,
12,
F6,
FD,
EE,
F7,
F5,
2D,
09,
23,
D3,
19,
F6,
ED,
19,
FE,
FC,
11,
E9,
12,
F3,
02,
17,
E9,
E9,
00,
1C,
E6,
0B,
CF,
F9,
0A,
C9,
08,
FF,
04,
CF,
1A,
E8,
E5,
C2,
E6,
FC,
BD,
0C,
DE,
10,
DB,
EA,
08,
FF,
F5,
19,
05,
FC,
FA,
04,
E5,
F5,
D0,
FD,
11,
11,
07,
E4,
01,
D8,
DC,
0F,
FD,
D1,
CB,
EA,
08,
F8,
04,
F7,
F1,
F5,
06,
00,
EC,
05,
E9,
FB,
F1,
20,
17,
EE,
09,
0C,
EB,
06,
E8,
0C,
0A,
08,
F4,
F7,
11,
10,
0B,
12,
07,
12,
EF,
F2,
F8,
F0,
FB,
0E,
F9,
04,
10,
03,
08,
0B,
EE,
00,
F7,
0A,
F3,
00,
F9,
04,
FD,
04,
06,
06,
0A,
F0,
FA,
13,
0E,
F3,
E9,
F4,
FF,
12,
05,
07,
05,
FC,
00,
09,
02,
0E,
00,
0B,
0E,
F2,
02,
FF,
FE,
0F,
FB,
F2,
0E,
29,
CB,
E0,
FA,
0F,
DC,
48,
E7,
3C,
08,
2F,
2B,
F0,
E2,
05,
29,
ED,
F9,
F0,
01,
43,
45,
03,
00,
4B,
D8,
E1,
FD,
02,
DC,
FE,
07,
C4,
FA,
10,
ED,
10,
27,
06,
14,
E2,
14,
CB,
E1,
E3,
F8,
E3,
FA,
C0,
2A,
DC,
2B,
E8,
05,
01,
D6,
C0,
16,
E0,
EA,
E0,
E6,
E8,
EA,
13,
26,
EE,
14,
D5,
F8,
1F,
41,
19,
18,
03,
BA,
1A,
FB,
EC,
0D,
F3,
ED,
F3,
15,
E4,
1C,
F3,
05,
08,
34,
4C,
B5,
FA,
27,
FC,
0F,
E4,
34,
23,
D9,
F7,
13,
DB,
FE,
E4,
16,
00,
FB,
13,
18,
0C,
04,
06,
FB,
EE,
08,
CC,
2A,
03,
02,
17,
12,
40,
2E,
13,
F3,
F0,
E6,
18,
FB,
E1,
B8,
0E,
F8,
E7,
FA,
C4,
2A,
15,
1E,
F2,
DE,
F1,
24,
C6,
03,
EC,
EB,
0A,
03,
EC,
DE,
21,
A2,
19,
2C,
05,
FE,
04,
F4,
FE,
1A,
07,
C2,
CF,
38,
F9,
06,
E2,
06,
F5,
BC,
DD,
08,
08,
F9,
D3,
EF,
08,
15,
10,
01,
0A,
02,
02,
FD,
10,
01,
B9,
01,
F0,
EE,
F6,
F8,
FE,
F2,
28,
0A,
D9,
FB,
07,
E1,
15,
FD,
DD,
07,
F3,
03,
09,
27,
0A,
13,
DC,
03,
E9,
2B,
0B,
01,
F1,
F1,
E5,
0D,
FA,
13,
EB,
07,
22,
17,
30,
25,
22,
E9,
FF,
3C,
01,
EE,
04,
FE,
04,
F8,
0E,
10,
FB,
F9,
2C,
BD,
17,
E7,
2C,
26,
15,
FF,
05,
07,
FE,
E5,
CC,
2E,
EB,
12,
3E,
F7,
ED,
52,
16,
DE,
29,
F6,
E1,
29,
10,
E0,
21,
F0,
0A,
F9,
EE,
DA,
FD,
30,
EE,
F9,
FB,
E8,
B7,
02,
FB,
D6,
FC,
13,
32,
FD,
E8,
10,
D0,
81,
E8,
58,
22,
D3,
E9,
FC,
19,
02,
F2,
0F,
55,
C7,
13,
EB,
0F,
E3,
58,
26,
13,
DD,
EF,
E9,
03,
1E,
CD,
13,
D6,
E1,
0F,
FA,
EA,
FA,
3E,
00,
E4,
1C,
36,
04,
C7,
D7,
05,
EF,
D8,
EA,
27,
03,
F1,
0A,
EA,
2C,
FE,
E1,
1E,
DA,
FC,
04,
DC,
EF,
0E,
F2,
FD,
1B,
1E,
1C,
FA,
1D,
07,
22,
EF,
FF,
1B,
F4,
ED,
43,
EB,
08,
09,
19,
E4,
D3,
07,
22,
C2,
D7,
2C,
F8,
D2,
F7,
0F,
0C,
F3,
12,
F3,
F4,
D6,
0F,
E6,
FF,
FC,
05,
09,
ED,
F0,
F7,
23,
F9,
20,
E8,
19,
14,
DE,
14,
03,
0A,
05,
09,
04,
0B,
F5,
D9,
01,
0D,
01,
09,
F7,
0D,
0C,
F0,
00,
FF,
FE,
0D,
EF,
07,
07,
0A,
00,
05,
EE,
F8,
0D,
E2,
FF,
EE,
11,
18,
04,
01,
05,
00,
07,
18,
23,
FD,
02,
DC,
0A,
F2,
DB,
02,
D2,
F8,
D2,
0C,
F9,
1E,
F1,
1F,
10,
E8,
35,
F0,
17,
01,
EC,
07,
FE,
C3,
FA,
0C,
06,
FB,
FA,
E5,
E1,
D1,
01,
F8,
1E,
E4,
ED,
01,
16,
D3,
0D,
FC,
DB,
E7,
E2,
01,
F9,
DA,
32,
0F,
04,
03,
EE,
FD,
0A,
FC,
FE,
EE,
24,
0B,
28,
07,
1A,
EF,
08,
E1,
1D,
1A,
01,
21,
14,
FF,
10,
DF,
1A,
0B,
1F,
F3,
2D,
F8,
19,
0B,
E8,
20,
10,
F8,
DB,
22,
EF,
F7,
10,
1C,
E7,
03,
CD,
E9,
F4,
01,
F3,
23,
E8,
DB,
14,
32,
20,
FC,
F8,
02,
30,
0F,
1D,
13,
43,
CA,
FE,
04,
16,
11,
18,
22,
12,
FD,
F5,
0F,
E3,
F5,
00,
F5,
B8,
16,
E3,
19,
02,
EE,
21,
18,
F1,
0F,
FD,
1E,
01,
1D,
E7,
0E,
00,
0F,
EE,
0D,
F9,
F2,
18,
03,
03,
12,
17,
FF,
E0,
08,
15,
00,
FC,
0F,
33,
00,
00,
04,
DD,
F2,
01,
0E,
EC,
1A,
F6,
E2,
E3,
1E,
01,
23,
FC,
FF,
0D,
F9,
10,
E2,
12,
F8,
F7,
06,
04,
E2,
00,
02,
04,
06,
19,
F3,
FA,
00,
FD,
15,
08,
FF,
15,
00,
20,
F9,
F9,
03,
EE,
0C,
0A,
03,
11,
0B,
13,
03,
08,
0A,
F8,
FA,
01,
10,
13,
ED,
09,
F2,
EC,
DF,
05,
15,
A9,
03,
DA,
E5,
07,
24,
05,
EA,
FB,
EB,
EE,
F4,
F8,
03,
0E,
13,
01,
EC,
C1,
F9,
05,
04,
05,
EF,
1A,
05,
00,
07,
FB,
DC,
1D,
10,
20,
C8,
DE,
DE,
07,
1C,
0F,
F0,
04,
F0,
2A,
DC,
09,
FF,
0B,
EB,
ED,
ED,
0E,
05,
05,
32,
08,
1E,
F0,
01,
15,
14,
FA,
09,
FB,
04,
15,
E6,
17,
1F,
14,
01,
C3,
FA,
FD,
06,
FC,
FA,
E9,
15,
EE,
DB,
08,
FC,
1B,
E0,
00,
0D,
12,
2C,
F9,
08,
22,
F8,
E7,
04,
17,
CB,
F4,
EF,
19,
F3,
F8,
16,
F9,
05,
1D,
11,
00,
18,
E2,
F8,
F4,
F8,
02,
EB,
E8,
E3,
E2,
17,
FB,
FE,
12,
05,
F5,
0F,
1B,
F3,
FE,
19,
EF,
01,
21,
24,
06,
FB,
E4,
06,
FA,
F3,
1A,
30,
E1,
0D,
F9,
FC,
21,
DA,
CD,
DA,
F5,
0A,
20,
E7,
04,
DF,
E8,
0E,
08,
07,
DE,
EA,
E8,
D9,
F9,
14,
F0,
1C,
03,
E8,
09,
26,
1E,
0B,
16,
00,
D0,
DB,
0E,
14,
1F,
02,
DE,
14,
18,
08,
06,
17,
E7,
11,
21,
FA,
E6,
F7,
16,
1F,
FD,
F2,
DF,
0B,
DF,
F1,
25,
E8,
ED,
E5,
0F,
18,
15,
02,
07,
0B,
02,
EA,
19,
EA,
02,
F7,
E0,
E8,
C6,
17,
F4,
00,
FC,
FD,
FD,
05,
09,
0B,
17,
FC,
E3,
0D,
E2,
0A,
12,
D2,
0F,
0B,
E9,
0B,
02,
04,
0C,
F6,
09,
11,
18,
FE,
CA,
FB,
C9,
F8,
04,
2D,
13,
FE,
B4,
17,
2C,
F8,
E7,
08,
F5,
DF,
F2,
0A,
F9,
0C,
E9,
F6,
E0,
10,
F2,
13,
19,
F6,
0C,
FE,
FA,
08,
EF,
F1,
13,
FC,
F2,
1E,
FE,
0E,
02,
F3,
DB,
07,
14,
D4,
D6,
13,
EC,
0A,
06,
25,
F5,
0A,
1B,
0C,
31,
F7,
F9,
3F,
C7,
FE,
F3,
F4,
1F,
F0,
E0,
0F,
26,
00,
01,
19,
04,
F0,
EE,
17,
CC,
0B,
FA,
F4,
1C,
1B,
01,
FB,
D2,
F7,
2A,
21,
F7,
E0,
E9,
38,
F2,
FA,
11,
18,
EE,
F3,
08,
0F,
11,
EC,
F9,
0A,
F2,
08,
07,
12,
FF,
F1,
0B,
F6,
ED,
0D,
EF,
FB,
F2,
04,
13,
FE,
01,
EC,
0C,
02,
13,
01,
12,
07,
06,
ED,
FB,
EB,
F5,
F2,
00,
0F,
01,
F5,
03,
03,
EC,
FD,
FC,
ED,
08,
0E,
FD,
0A,
00,
ED,
08,
FE,
F8,
0D,
13,
ED,
F4,
01,
F1,
09,
16,
14,
16,
F7,
01,
12,
F5,
06,
A8,
E7,
0B,
D7,
40,
28,
19,
F4,
3D,
54,
27,
11,
E6,
01,
F3,
2F,
D1,
0D,
20,
EA,
DD,
0F,
16,
F1,
08,
37,
36,
FB,
2C,
FC,
00,
ED,
F5,
FE,
07,
E3,
19,
2F,
22,
05,
FE,
FB,
E7,
E5,
1F,
10,
E7,
22,
D6,
F6,
0F,
F4,
EB,
13,
19,
E7,
01,
F7,
F7,
F7,
01,
FB,
08,
F5,
F5,
EB,
09,
F0,
FC,
F2,
14,
ED,
13,
FC,
F5,
EB,
14,
F1,
F7,
EC,
0F,
FF,
FA,
08,
ED,
F8,
EC,
F4,
FE,
0D,
F4,
08,
03,
00,
EF,
06,
FA,
EF,
FD,
F5,
F8,
FC,
03,
09,
12,
05,
F5,
11,
F4,
F9,
02,
EF,
F0,
F7,
01,
F9,
03,
FC,
FC,
0B,
BF,
E8,
23,
16,
22,
F1,
FB,
1C,
FC,
E6,
1E,
F5,
0D,
ED,
02,
E1,
E6,
24,
E3,
03,
26,
19,
08,
DE,
0F,
1A,
24,
F7,
19,
01,
F3,
12,
08,
1D,
31,
F7,
0A,
25,
12,
EC,
F8,
20,
E5,
12,
1F,
2C,
B8,
02,
E1,
1B,
1E,
08,
ED,
0D,
1C,
BA,
EE,
E2,
D9,
01,
0E,
02,
19,
19,
F0,
FD,
10,
11,
FC,
05,
06,
DA,
EF,
DA,
DD,
FD,
DD,
02,
1A,
CF,
16,
01,
20,
12,
E8,
F9,
F2,
2C,
11,
0B,
E3,
09,
13,
F1,
F4,
33,
1C,
0C,
E7,
42,
1F,
FB,
02,
F2,
EB,
C1,
14,
0B,
30,
DF,
1B,
F8,
3F,
FC,
26,
0E,
ED,
0A,
33,
02,
E6,
D4,
1A,
E8,
E4,
E8,
FD,
1F,
EF,
B9,
21,
17,
0A,
E1,
12,
F8,
F3,
FF,
F6,
E0,
E7,
04,
18,
0A,
F6,
18,
F5,
03,
FC,
D7,
CB,
B3,
FC,
11,
1F,
E7,
08,
FA,
D8,
1D,
21,
B8,
3F,
20,
0A,
03,
EA,
A0,
0F,
0C,
09,
E6,
1C,
F3,
F6,
DB,
0E,
F6,
05,
08,
EF,
0F,
09,
D3,
D0,
01,
E8,
04,
F3,
FF,
08,
D9,
CE,
F3,
A0,
01,
E9,
DC,
F8,
F2,
00,
04,
FE,
F2,
F3,
DF,
0B,
05,
00,
D2,
F3,
C4,
10,
DB,
FC,
09,
E1,
1A,
21,
F8,
F9,
00,
F5,
21,
B6,
DA,
F8,
02,
E5,
F8,
F9,
14,
12,
08,
FB,
EC,
1D,
08,
06,
DB,
F2,
15,
14,
FF,
0A,
FB,
E0,
1D,
21,
FF,
17,
E7,
03,
FE,
FA,
FE;