memory_initialization_radix=16;
memory_initialization_vector=
F3,
F4,
05,
E0,
F3,
0B,
06,
0A,
FC,
01,
07,
FC,
E8,
0E,
0E,
1B,
F6,
E8,
12,
EB,
04,
FD,
D3,
02,
F1,
D6,
FF,
B5,
D1,
D7,
ED,
F7,
F7,
01,
07,
0B,
0E,
00,
04,
0C,
11,
DA,
EA,
0B,
DE,
FD,
E0,
01,
F1,
04,
E6,
BE,
02,
F8,
00,
E4,
13,
0A,
E6,
07,
E6,
18,
0B,
FA,
FF,
F7,
FB,
09,
EB,
D1,
03,
F0,
08,
0A,
F4,
18,
EC,
FA,
14,
04,
F7,
18,
E3,
EC,
05,
F3,
01,
17,
08,
EC,
05,
0B,
08,
F4,
07,
F5,
F6,
11,
E0,
0C,
E9,
14,
F5,
00,
FD,
02,
FF,
FA,
F0,
05,
F9,
04,
F7,
FD,
F8,
EB,
ED,
0E,
11,
0B,
0D,
0A,
0C,
0C,
11,
FD,
04,
D5,
04,
C7,
07,
CE,
F4,
02,
E2,
09,
03,
E5,
E3,
F7,
0D,
F5,
0D,
EB,
0F,
06,
0E,
04,
08,
E3,
DC,
E7,
CB,
C3,
EA,
07,
E4,
09,
DE,
01,
07,
E2,
05,
DB,
FF,
02,
08,
EE,
15,
FD,
06,
E4,
E7,
02,
E2,
0B,
E9,
E8,
EB,
03,
FC,
FA,
08,
0E,
F1,
EA,
04,
E5,
0A,
DA,
07,
F8,
07,
07,
F7,
02,
07,
D4,
F1,
F2,
F9,
02,
FB,
F3,
03,
F3,
FD,
0C,
14,
05,
F7,
00,
04,
06,
F7,
06,
EE,
05,
12,
FA,
F5,
F4,
E8,
03,
0F,
06,
E4,
0A,
F8,
F5,
DD,
CF,
04,
FB,
00,
12,
00,
F5,
07,
FD,
0C,
DB,
F6,
00,
FC,
E8,
0C,
13,
FE,
E8,
0C,
0C,
07,
F0,
FD,
D0,
F9,
D8,
FD,
F9,
0A,
0B,
05,
F6,
07,
02,
05,
E6,
F5,
E7,
0A,
E8,
0F,
10,
0A,
E6,
08,
13,
DD,
0D,
EB,
FD,
FF,
13,
03,
F2,
E7,
FA,
F0,
EB,
0B,
F7,
09,
04,
F3,
0D,
09,
02,
E6,
ED,
ED,
E5,
06,
EA,
F6,
F8,
00,
E6,
EF,
F2,
06,
D3,
08,
EC,
07,
C1,
08,
81,
E4,
AD,
03,
E7,
F0,
0C,
FC,
D1,
0C,
D5,
E7,
EB,
EE,
1C,
14,
F8,
F2,
0D,
EE,
EE,
E3,
FE,
10,
15,
E8,
07,
F3,
05,
0E,
C7,
12,
FB,
F3,
E4,
09,
01,
04,
D9,
0B,
05,
E9,
F9,
EB,
02,
F6,
22,
F7,
FD,
FB,
F5,
FC,
02,
FD,
0E,
04,
FC,
EA,
00,
F3,
0D,
FE,
10,
FB,
E4,
FA,
08,
F2,
00,
FE,
05,
1A,
FA,
ED,
FD,
FE,
0C,
0C,
9C,
F9,
D1,
E7,
C7,
12,
F3,
D0,
F0,
12,
DA,
E8,
D1,
F6,
DF,
FC,
15,
EF,
F8,
E3,
FF,
F0,
F0,
F6,
03,
F9,
13,
05,
F1,
F4,
0D,
09,
E6,
18,
F4,
04,
FF,
0C,
0D,
0D,
B2,
07,
DA,
F2,
BE,
09,
F0,
F9,
07,
E2,
06,
0B,
0D,
DB,
EC,
08,
0C,
F9,
01,
ED,
11,
D5,
0A,
F7,
01,
F1,
E8,
0E,
D7,
0D,
08,
FB,
FE,
EA,
0E,
F6,
E4,
E9,
E7,
15,
F0,
E6,
08,
DA,
05,
00,
DB,
0B,
F3,
08,
FD,
09,
E9,
E0,
10,
ED,
0E,
EB,
E8,
FE,
EF,
FA,
F8,
22,
F7,
FA,
D9,
FC,
04,
E9,
F5,
02,
EF,
0E,
0B,
F4,
F1,
DF,
02,
ED,
0A,
F9,
0D,
FB,
FA,
05,
E4,
E8,
F3,
E8,
F1,
EE,
06,
07,
11,
07,
0E,
09,
F4,
10,
FD,
0C,
F2,
FD,
E2,
0B,
E5,
FE,
0C,
E8,
04,
04,
04,
E4,
06,
06,
14,
0A,
F1,
FF,
0E,
F9,
EC,
F4,
E2,
01,
EA,
F2,
03,
03,
0B,
02,
F1,
00,
0D,
00,
09,
EC,
E7,
F9,
00,
EE,
0A,
0F,
0C,
EA,
EC,
F5,
CB,
04,
21,
F3,
D7,
FB,
EC,
07,
F4,
F0,
0B,
0D,
11,
FB,
0A,
FC,
F2,
0C,
0A,
08,
0A,
0F,
B5,
0C,
D0,
0C,
F7,
F3,
FE,
FD,
04,
F6,
F6,
FD,
07,
F8,
FA,
FB,
FA,
F8,
03,
00,
DA,
03,
E3,
11,
DA,
F6,
F0,
F4,
F8,
FC,
FA,
E1,
FE,
08,
E0;