memory_initialization_radix=16;
memory_initialization_vector=
57,
FC,
18,
10,
18,
52,
4E,
0D,
D4,
F9,
1F,
41,
F0,
1C,
0E,
59,
5D,
FF,
55,
58,
FE,
7F,
26,
3D,
4B,
05,
E8,
26,
4D,
30,
0F,
2C,
41,
63,
14,
46,
13,
13,
75,
1E,
20,
E0,
36,
31,
70,
18,
1A,
EB,
30,
C6,
EB,
54,
11,
E2,
41,
FF,
E1,
D8,
27,
43,
EF,
E7,
46,
EC;