01100010
00100100
01110110
00001010
11111110
00010111
01010001
10111000
00011111
00110001
01001010
11011001
00000010
00100100
00010100
11100010
01011101
11110110
00010010
00001100
00011010
00101010
00011100
10010110
01010011
11110100
10111001
01001001
11111110
11111111
00110101
00100101
01001011
01010100
11111011
11111110
11111101
01010111
01101011
01101101
01100010
11111011
00100010
00011011
10011111
00011111
00101000
11111110
00100001
10111101
11111110
00110111
00011101
00001101
01011001
11110101
00001111
00111000
00000011
00101010
00101101
00100101
01001101
00100000
00010001
00111000
00110011
00000100
11110001
00111100
00000001
01000000
00100001
00010010
11111001
11110001
00001001
01010000
10111011
01010010
11111111
00111001
00010110
00001110
01010001
01010110
11111110
00000001
00001110
00111100
00111011
01111111
00100110
00011110
11011111
00110000
10101100
11111110
00111100
00110000
00000000
01101110
11110001
11001111
11111110
01000000
00000010
00110111
00110010
11011111
11100000
11110101
00001001
00001111
01001111
11011110
00101100
00111010
11111111
00001011
00100101
11111101
00001100
11111110
01011101
00000010
00010110
11000000
